{
  "type": "BPE",
  "description": "Multilingual (EN/HI/TE/TA) BPE tokenizer trained on the Wikipedia \"India\" article. 10,000-token shared vocabulary.",
  "languages": [
    "en",
    "hi",
    "te",
    "ta"
  ],
  "end_of_word_suffix": "</w>",
  "pretokenizer": "split on whitespace, then split off punctuation (string.punctuation + Indic marks). See pre_tokenize() in train_bpe.py.",
  "ratio_definition": "X_lang = total_encoded_tokens / total_words for that language corpus. Score = 1000 / (max X - min X).",
  "vocab_size": 10000,
  "base_vocab_size": 297,
  "vocab": [
    "\"",
    "$",
    "%",
    "&",
    "'",
    "(",
    ")",
    "+",
    ",",
    "-",
    ".",
    "/",
    "0",
    "1",
    "2",
    "3",
    "4",
    "5",
    "6",
    "7",
    "8",
    "9",
    ":",
    ";",
    "</w>",
    "=",
    "A",
    "B",
    "C",
    "D",
    "E",
    "F",
    "G",
    "H",
    "I",
    "J",
    "K",
    "L",
    "M",
    "N",
    "O",
    "P",
    "R",
    "S",
    "T",
    "U",
    "V",
    "W",
    "Y",
    "Z",
    "[",
    "]",
    "^",
    "a",
    "b",
    "c",
    "d",
    "e",
    "f",
    "g",
    "h",
    "i",
    "j",
    "k",
    "l",
    "m",
    "n",
    "o",
    "p",
    "q",
    "r",
    "s",
    "t",
    "u",
    "v",
    "w",
    "x",
    "y",
    "z",
    "|",
    "°",
    "Ö",
    "á",
    "â",
    "í",
    "ā",
    "ī",
    "Ś",
    "ū",
    "ə",
    "ɦ",
    "ɪ",
    "ɾ",
    "ʊ",
    "ʱ",
    "ˈ",
    "ː",
    "ί",
    "α",
    "δ",
    "ν",
    "ο",
    "ς",
    "ό",
    "ँ",
    "ं",
    "ः",
    "अ",
    "आ",
    "इ",
    "ई",
    "उ",
    "ऊ",
    "ऋ",
    "ए",
    "ऐ",
    "ऑ",
    "ओ",
    "औ",
    "क",
    "ख",
    "ग",
    "घ",
    "च",
    "छ",
    "ज",
    "झ",
    "ञ",
    "ट",
    "ठ",
    "ड",
    "ढ",
    "ण",
    "त",
    "थ",
    "द",
    "ध",
    "न",
    "प",
    "फ",
    "ब",
    "भ",
    "म",
    "य",
    "र",
    "ल",
    "व",
    "श",
    "ष",
    "स",
    "ह",
    "़",
    "ा",
    "ि",
    "ी",
    "ु",
    "ू",
    "ृ",
    "े",
    "ै",
    "ॉ",
    "ो",
    "ौ",
    "्",
    "।",
    "०",
    "१",
    "२",
    "३",
    "४",
    "५",
    "६",
    "७",
    "८",
    "९",
    "॰",
    "ஃ",
    "அ",
    "ஆ",
    "இ",
    "ஈ",
    "உ",
    "ஊ",
    "எ",
    "ஏ",
    "ஐ",
    "ஒ",
    "ஓ",
    "க",
    "ங",
    "ச",
    "ஜ",
    "ஞ",
    "ட",
    "ண",
    "த",
    "ந",
    "ன",
    "ப",
    "ம",
    "ய",
    "ர",
    "ற",
    "ல",
    "ள",
    "ழ",
    "வ",
    "ஷ",
    "ஸ",
    "ஹ",
    "ா",
    "ி",
    "ீ",
    "ு",
    "ூ",
    "ெ",
    "ே",
    "ை",
    "ொ",
    "ோ",
    "ௌ",
    "்",
    "ం",
    "ః",
    "అ",
    "ఆ",
    "ఇ",
    "ఈ",
    "ఉ",
    "ఋ",
    "ఎ",
    "ఏ",
    "ఐ",
    "ఒ",
    "ఓ",
    "ఔ",
    "క",
    "ఖ",
    "గ",
    "ఘ",
    "చ",
    "ఛ",
    "జ",
    "ఞ",
    "ట",
    "ఠ",
    "డ",
    "ఢ",
    "ణ",
    "త",
    "థ",
    "ద",
    "ధ",
    "న",
    "ప",
    "ఫ",
    "బ",
    "భ",
    "మ",
    "య",
    "ర",
    "ల",
    "ళ",
    "వ",
    "శ",
    "ష",
    "స",
    "హ",
    "ా",
    "ి",
    "ీ",
    "ు",
    "ూ",
    "ృ",
    "ె",
    "ే",
    "ై",
    "ొ",
    "ో",
    "ౌ",
    "్",
    "ṅ",
    "ṇ",
    "ṣ",
    "ṭ",
    "Ἰ",
    "‌",
    "‍",
    "–",
    "—",
    "‘",
    "’",
    "“",
    "”",
    "†",
    "′",
    "₹",
    "e</w>",
    "s</w>",
    "th",
    "n</w>",
    "d</w>",
    "an",
    "er",
    ",</w>",
    "in",
    "the</w>",
    "t</w>",
    "y</w>",
    "a</w>",
    "al",
    "ar",
    ".</w>",
    "ti",
    "di",
    "en",
    "or",
    "ed</w>",
    "on",
    "and</w>",
    "of",
    "of</w>",
    "In",
    "re",
    "Indi",
    "o</w>",
    "on</w>",
    "al</w>",
    "g</w>",
    "es</w>",
    "st",
    "in</w>",
    "=</w>",
    "er</w>",
    "li",
    "an</w>",
    "at",
    "ing</w>",
    "ur",
    "om",
    "as</w>",
    "India</w>",
    "ic",
    "to</w>",
    "ec",
    "ou",
    "th</w>",
    "st</w>",
    "ri",
    "ly</w>",
    "ati",
    "si",
    "h</w>",
    "em",
    "Th",
    "ent</w>",
    "-</w>",
    "am",
    "ts</w>",
    "ul",
    "is</w>",
    "or</w>",
    "ro",
    "lo",
    "The</w>",
    "ra",
    "ir",
    "is",
    "by</w>",
    "as",
    "ver",
    "con",
    "wi",
    "19",
    "Indian</w>",
    "ch",
    "0</w>",
    "en</w>",
    "su",
    "ce</w>",
    "ag",
    "du",
    "po",
    "ent",
    "'</w>",
    "ar</w>",
    "il",
    "ation</w>",
    "we",
    "un",
    "ex",
    "wh",
    "ad",
    "be",
    "ol",
    "it",
    "m</w>",
    "1</w>",
    "20",
    "de",
    "was</w>",
    "with</w>",
    "ons</w>",
    "tion</w>",
    "for",
    "ve</w>",
    "le",
    "ci",
    "%</w>",
    "ern</w>",
    "rom",
    "ab",
    "ang",
    "i</w>",
    "pl",
    "ist",
    "ac",
    "at</w>",
    "us",
    ";</w>",
    "sp",
    "ere</w>",
    "ally</w>",
    "mo",
    "ate</w>",
    "rom</w>",
    "from</w>",
    "has</w>",
    "ig",
    "ic</w>",
    "ha",
    "ter",
    "ich</w>",
    "par",
    "inc",
    "co",
    "se",
    "In</w>",
    "se</w>",
    "ma",
    "ted</w>",
    "which</w>",
    "l</w>",
    "sh",
    "res",
    "c</w>",
    "gi",
    "ast",
    "ud",
    "w</w>",
    "cont",
    "ty</w>",
    "tur",
    "sti",
    "el",
    "com",
    "(</w>",
    ")</w>",
    "its</w>",
    "im",
    "ies</w>",
    "for</w>",
    "ment</w>",
    "est</w>",
    "ter</w>",
    "le</w>",
    "lar",
    "ea",
    "and",
    "are</w>",
    "vi",
    "wor",
    "ld</w>",
    "were</w>",
    "pro",
    "over",
    "cent",
    "oun",
    "ver</w>",
    "2</w>",
    "ers</w>",
    "tu",
    "ary</w>",
    "gen",
    "larg",
    "ong</w>",
    "ing",
    "econ",
    "\"</w>",
    "onal</w>",
    "7</w>",
    "00</w>",
    "ated</w>",
    "gh",
    "k</w>",
    "4</w>",
    "per",
    "5</w>",
    "ear",
    "por",
    "bu",
    "ap",
    "um",
    "no",
    "overn",
    "min",
    "end",
    "ism</w>",
    "ass",
    "Con",
    "tr",
    "ak",
    "mar",
    "up",
    "age</w>",
    "Hin",
    "ain",
    "ical</w>",
    "af",
    "6</w>",
    "Ch",
    "mil",
    "bec",
    "ay",
    "econom",
    "em</w>",
    "lion</w>",
    "bo",
    "outh</w>",
    "ved</w>",
    "ni",
    "ture</w>",
    "any</w>",
    "8</w>",
    "ance</w>",
    "nor",
    "me</w>",
    "ir</w>",
    "into</w>",
    "pe",
    "uring</w>",
    "ity</w>",
    "cul",
    "me",
    "centur",
    "duc",
    "pul",
    "CE",
    "CE</w>",
    "ame</w>",
    "low",
    "3</w>",
    "overnment</w>",
    "201",
    "sh</w>",
    "sub",
    "angu",
    "so",
    "stitu",
    "pri",
    "tra",
    "ely</w>",
    "ates</w>",
    "the",
    "ans</w>",
    "lat",
    "form",
    "mi",
    "tions</w>",
    "ne",
    "langu",
    "Hindu",
    "cl",
    "cal</w>",
    "fir",
    "incl",
    "minist",
    "sia</w>",
    "popul",
    "ous</w>",
    "der</w>",
    "regi",
    "led</w>",
    "dec",
    "qu",
    "includ",
    "ch</w>",
    "ser",
    "world</w>",
    "ence</w>",
    "oc",
    "rec",
    "res</w>",
    "tan",
    "ast</w>",
    "first</w>",
    "ther</w>",
    "sy",
    "ome</w>",
    "av",
    "str",
    "dh",
    "ting</w>",
    "reli",
    "reas",
    "spec",
    "government</w>",
    "it</w>",
    "dern</w>",
    "gra",
    "used</w>",
    "became</w>",
    "ents</w>",
    "der",
    "rou",
    "gh</w>",
    "syst",
    "during</w>",
    "mor",
    "ph",
    "so</w>",
    "be</w>",
    "ress</w>",
    "elec",
    "largest</w>",
    "contin",
    "stern</w>",
    "9</w>",
    "had</w>",
    "pir",
    "pire</w>",
    "but</w>",
    "been</w>",
    "fe",
    "gro",
    "uc",
    "century</w>",
    "io",
    "als</w>",
    "have</w>",
    "also</w>",
    "ces</w>",
    "ve",
    "gener",
    "fic",
    "most</w>",
    "ded</w>",
    "ay</w>",
    "et",
    "ages</w>",
    "thern</w>",
    "cast",
    "Em",
    "religi",
    "lit",
    "riti",
    "to",
    "ss</w>",
    "million</w>",
    "u</w>",
    "ple</w>",
    "such</w>",
    "de</w>",
    "p</w>",
    "comm",
    "ds</w>",
    "Cong",
    "Congress</w>",
    "South</w>",
    "eng",
    "year",
    "years</w>",
    "lif",
    "ans",
    "tw",
    "rul",
    "modern</w>",
    "inf",
    "after</w>",
    "maj",
    "system</w>",
    "gre",
    "over</w>",
    "increas",
    "that</w>",
    "tradi",
    "num",
    "more</w>",
    "ine</w>",
    "ber</w>",
    "200",
    "pu",
    "coun",
    "east</w>",
    "Af",
    "ric",
    "pre",
    "dom",
    "diver",
    "sc",
    "hi</w>",
    "two</w>",
    "lu",
    "thou",
    "our",
    "ding</w>",
    ":</w>",
    "both</w>",
    "ke",
    "ain</w>",
    "fi",
    "ca",
    "tor",
    "ational</w>",
    "prime</w>",
    "Asia</w>",
    "ce",
    "istan</w>",
    "igh",
    "BCE</w>",
    "caste</w>",
    "soci",
    "f</w>",
    "ral</w>",
    "ial</w>",
    "beg",
    "tec",
    "195",
    "202",
    "stitution</w>",
    "ween</w>",
    "–</w>",
    "ties</w>",
    "urb",
    "—</w>",
    "all</w>",
    "minister</w>",
    "P</w>",
    "196",
    "199",
    "ut",
    "life</w>",
    "language</w>",
    "Bud",
    "Buddh",
    "this</w>",
    "arm",
    "Empire</w>",
    "Briti",
    "British</w>",
    "ist</w>",
    "population</w>",
    "grow",
    "ucle",
    "uclear</w>",
    "bet",
    "class",
    "their</w>",
    "bli",
    "ince</w>",
    "cy</w>",
    "Pak",
    "Pakistan</w>",
    "Ind",
    "continent</w>",
    "erg",
    "western</w>",
    "ving</w>",
    "sup",
    "poli",
    "ations</w>",
    "Ma",
    "ta</w>",
    "art</w>",
    "economic</w>",
    "began</w>",
    "log",
    "anges</w>",
    "A</w>",
    "large</w>",
    "per</w>",
    "sity</w>",
    "Ac",
    "ll</w>",
    "many</w>",
    "ght</w>",
    "rea",
    "between</w>",
    "ped</w>",
    "lowing</w>",
    "tional</w>",
    "fol",
    "dance</w>",
    "try</w>",
    "It</w>",
    "later</w>",
    "long</w>",
    "ade</w>",
    "form</w>",
    "Eur",
    "ff",
    "northern</w>",
    "ose</w>",
    "id",
    "est",
    "exp",
    "economy</w>",
    "wn</w>",
    "ement</w>",
    "comp",
    "istor",
    "ures</w>",
    "urban</w>",
    "pow",
    "able</w>",
    "op",
    "under</w>",
    "low</w>",
    "publi",
    "public</w>",
    "since</w>",
    "south</w>",
    "west</w>",
    "ves</w>",
    "An",
    "land",
    "hum",
    "subcontinent</w>",
    "than</w>",
    "000</w>",
    "The",
    "len",
    "um</w>",
    "By</w>",
    "ked</w>",
    "tical</w>",
    "cre",
    "ili",
    "tion",
    "ered</w>",
    "leg",
    "influ",
    "increased</w>",
    "liter",
    "rate</w>",
    "cor",
    "tt",
    "peo",
    "oo",
    "out</w>",
    "including</w>",
    "ound</w>",
    "sed</w>",
    "main",
    "classical</w>",
    "power</w>",
    "ure</w>",
    "il</w>",
    "sul",
    "velo",
    "After</w>",
    "ited</w>",
    "tive</w>",
    "not</w>",
    "among</w>",
    "one</w>",
    "cour",
    "di</w>",
    "2011</w>",
    "are",
    "194",
    "Chin",
    "Ne",
    "north</w>",
    "dam",
    "Mo",
    "ev",
    "ised</w>",
    "Hindu</w>",
    "ik",
    "Mu",
    "Mugh",
    "ative</w>",
    "rule</w>",
    "Com",
    "ned</w>",
    "tro",
    "ority</w>",
    "ion</w>",
    "atic</w>",
    "parli",
    "parliam",
    "US",
    "US</w>",
    "$</w>",
    "though</w>",
    "nuclear</w>",
    "state</w>",
    "diversity</w>",
    "histor",
    "cient</w>",
    "ext",
    "people</w>",
    "har",
    "perio",
    "period</w>",
    "sty",
    "les</w>",
    "isation</w>",
    "graph",
    "develo",
    "part</w>",
    "alay",
    "ong",
    "war",
    "number</w>",
    "tern",
    "species</w>",
    "general</w>",
    "mus",
    "offic",
    "country</w>",
    "ven",
    "sou",
    "Beng",
    "land</w>",
    "China</w>",
    "time</w>",
    "region</w>",
    "emerg",
    "Indu",
    "river</w>",
    "bas",
    "millen",
    "millenni",
    "millennium</w>",
    "Sans",
    "Sansk",
    "Sanskri",
    "Sanskrit</w>",
    "aw",
    "languages</w>",
    "ere",
    "scri",
    "Mus",
    "ains</w>",
    "ks</w>",
    "Pun",
    "Punj",
    "Punjab",
    "Mughal</w>",
    "non</w>",
    "throu",
    "tic</w>",
    "milit",
    "military</w>",
    "ately</w>",
    "ron",
    "ced</w>",
    "var",
    "some</w>",
    "ically</w>",
    "new</w>",
    "Ar",
    "king</w>",
    "tri",
    "them</w>",
    "ograph",
    "caused</w>",
    "Un",
    "sig",
    "lead",
    "cs</w>",
    "sur",
    "served</w>",
    "ural</w>",
    "cho",
    "coo",
    "them",
    "themati",
    "Re",
    "bi",
    "theast</w>",
    "Is",
    "no</w>",
    "occ",
    "Indus</w>",
    "ird</w>",
    "Indo</w>",
    "ings</w>",
    "social</w>",
    "ya</w>",
    "expor",
    "Musli",
    "Cent",
    "medi",
    "culture</w>",
    "Sik",
    "centuries</w>",
    "rel",
    "col",
    "eig",
    "18",
    "duced</w>",
    "other</w>",
    "parti",
    "majority</w>",
    "ed",
    "through</w>",
    "bil",
    "billion</w>",
    "major</w>",
    "ash",
    "sing</w>",
    "our</w>",
    "ho",
    "fin",
    "sian</w>",
    "speci",
    "ren",
    "pres",
    "day</w>",
    "tant</w>",
    "wever</w>",
    "fam",
    "ics</w>",
    "cal",
    "man",
    "consi",
    "ant</w>",
    "iv",
    "bal</w>",
    "who</w>",
    "ru",
    "ss",
    "direc",
    "Wor",
    "World</w>",
    "rural</w>",
    "ritor",
    "Him",
    "Himalay",
    "198",
    "ra</w>",
    "election</w>",
    "mathemati",
    "1947</w>",
    "Se",
    "Bengal</w>",
    "ri</w>",
    "domin",
    "tly</w>",
    "made</w>",
    "emerged</w>",
    "third</w>",
    "arch",
    "early</w>",
    "Hinduism</w>",
    "lin",
    "political</w>",
    "wom",
    "women</w>",
    "dle</w>",
    "religious</w>",
    "am</w>",
    "Central</w>",
    "Del",
    "Delhi</w>",
    "tanate</w>",
    "Punjab</w>",
    "ft</w>",
    "tural</w>",
    "acy</w>",
    "East</w>",
    "Comp",
    "Company</w>",
    "Indians</w>",
    "tech",
    "vement</w>",
    "equ",
    "ats</w>",
    "cording</w>",
    "En",
    "astern</w>",
    "orig",
    "ata</w>",
    "forms</w>",
    "human</w>",
    "hr",
    "esti",
    "anim",
    "tes</w>",
    "ill",
    "tim",
    "times</w>",
    "agric",
    "agricul",
    "contro",
    "ous",
    "trans",
    "Al",
    "arti",
    "marke",
    "aj",
    "long",
    "following</w>",
    "Gand",
    "sec",
    "ber",
    "territor",
    "De",
    "include</w>",
    "influen",
    "mon",
    "ten</w>",
    "end</w>",
    "thre",
    "car",
    "areas</w>",
    "197",
    "party</w>",
    "Jan",
    "Sh",
    "sid",
    "St",
    "sions</w>",
    "growth</w>",
    "contri",
    "contribu",
    "ensu",
    "ensus</w>",
    "music</w>",
    "dep",
    "depend",
    "emoc",
    "Its</w>",
    "ob",
    "lands</w>",
    "ago</w>",
    "occup",
    "ga",
    "alle",
    "Euro",
    "Europe",
    "European</w>",
    "diff",
    "regions</w>",
    "there</w>",
    "us</w>",
    "gan",
    "Muslim</w>",
    "sion</w>",
    "nolog",
    "ducation</w>",
    "1950</w>",
    "parliament",
    "parliamentary</w>",
    "ti</w>",
    "eth",
    "grew</w>",
    "cap",
    "ann",
    "literacy</w>",
    "hig",
    "Am",
    "all",
    "suppor",
    "Eng",
    "Engli",
    "English</w>",
    "red</w>",
    "Constitution</w>",
    "origin",
    "cur",
    "wide",
    "secon",
    "second</w>",
    "gar",
    "ants</w>",
    "feat",
    "fig",
    "ating</w>",
    "Ganges</w>",
    "emp",
    "ram",
    "fied</w>",
    "ange</w>",
    "based</w>",
    "religions</w>",
    "bir",
    "central</w>",
    "sive</w>",
    "sho",
    "ck</w>",
    "edi",
    "ental</w>",
    "ta",
    "dev",
    "pen",
    "ai</w>",
    "control</w>",
    "they</w>",
    "ry</w>",
    "dis",
    "cu",
    "sts</w>",
    "ite</w>",
    "especi",
    "especially</w>",
    "pain",
    "cial</w>",
    "late</w>",
    "cru",
    "te",
    "ments</w>",
    "sum",
    "lim",
    "There</w>",
    "indu",
    "Gandhi</w>",
    "0s</w>",
    "states</w>",
    "constitution</w>",
    "formed</w>",
    "wan",
    "up</w>",
    "ee",
    "ancient</w>",
    "read</w>",
    "We",
    "dra",
    "ari</w>",
    "use</w>",
    "fore</w>",
    "BJ",
    "BJP</w>",
    "Nehr",
    "Nehru</w>",
    "ye",
    "year</w>",
    "war</w>",
    "1991</w>",
    "United</w>",
    "sis</w>",
    "2001</w>",
    "rates</w>",
    "census</w>",
    "ances</w>",
    "Hindi</w>",
    "marri",
    "scul",
    "sculp",
    "Ara",
    "ders</w>",
    "Andam",
    "diverse</w>",
    "alley</w>",
    "vili",
    "200</w>",
    "recor",
    "pr",
    "400</w>",
    "Buddhism</w>",
    "During</w>",
    "king",
    "scrip",
    "Isl",
    "lish",
    "southern</w>",
    "coast",
    "inter",
    "ently</w>",
    "created</w>",
    "compo",
    "te</w>",
    "prom",
    "technolog",
    "education</w>",
    "ok</w>",
    "movement</w>",
    "viol",
    "fac",
    "ration</w>",
    "feder",
    "federal</w>",
    "republic</w>",
    "ety</w>",
    "become</w>",
    "growing</w>",
    "mid",
    "high</w>",
    "disp",
    "Among</w>",
    "air</w>",
    "bio",
    "ew",
    "According</w>",
    "fer",
    "defin",
    "urther</w>",
    "Per",
    "eastern</w>",
    "well</w>",
    "term</w>",
    "app",
    "widely</w>",
    "enti",
    "coal",
    "earli",
    "ood</w>",
    "ying</w>",
    "only</w>",
    "These</w>",
    "cities</w>",
    "styles</w>",
    "wa",
    "inv",
    "ad</w>",
    "ould</w>",
    "bac",
    "ge",
    "sequ",
    "amm",
    "fl",
    "Tam",
    "Tamil</w>",
    "penin",
    "peninsul",
    "vely</w>",
    "regional</w>",
    "whose</w>",
    "traditional</w>",
    "tem",
    "nific",
    "sultanate</w>",
    "men</w>",
    "indi",
    "local</w>",
    "her",
    "commer",
    "adv",
    "line</w>",
    "longer</w>",
    "set</w>",
    "sever",
    "can",
    "Pro",
    "National</w>",
    "ternal</w>",
    "hel",
    "won</w>",
    "vic",
    "elections</w>",
    "cri",
    "Himalayas</w>",
    "Western</w>",
    "si</w>",
    "union</w>",
    "tal</w>",
    "often</w>",
    "endem",
    "forest</w>",
    "nat",
    "Act</w>",
    "five</w>",
    "Government</w>",
    "ust</w>",
    "til</w>",
    "26</w>",
    "bod",
    "ition</w>",
    "eign</w>",
    "very</w>",
    "States</w>",
    "exec",
    "execu",
    "Uni",
    "GD",
    "GDP</w>",
    "impor",
    "official</w>",
    "ati</w>",
    "independ",
    "bor",
    "Bh",
    "ank",
    "Andaman</w>",
    "high",
    "thin</w>",
    "Jain",
    "Jainism</w>",
    "soli",
    "rise</w>",
    "stat",
    "ility</w>",
    "organ",
    "kingdom",
    "kingdoms</w>",
    "Sou",
    "Southeast</w>",
    "estab",
    "establish",
    "mit",
    "Sikh",
    "jec",
    "left</w>",
    "ghts</w>",
    "changes</w>",
    "mary</w>",
    "tor</w>",
    "ale</w>",
    "govern",
    "istic</w>",
    "technology</w>",
    "middle</w>",
    "ass</w>",
    "ality</w>",
    "Kash",
    "olved</w>",
    "mid</w>",
    "four</w>",
    "Gre",
    "os</w>",
    "sett",
    "Bhar",
    "vari",
    "Nor",
    "popular</w>",
    "thought</w>",
    "earliest</w>",
    "ched</w>",
    "50</w>",
    "kno",
    "known</w>",
    "ls</w>",
    "produc",
    "500</w>",
    "around</w>",
    "ala</w>",
    "char",
    "figures</w>",
    "vill",
    "oci",
    "yan</w>",
    "ling</w>",
    "pla",
    "place</w>",
    "emplo",
    "bro",
    "however</w>",
    "reg",
    "300</w>",
    "differ",
    "conduc",
    "Bra",
    "Brah",
    "foun",
    "empire</w>",
    "tex",
    "subsequ",
    "struc",
    "ians</w>",
    "administ",
    "great",
    "along</w>",
    "aver",
    "mak",
    "develop",
    "signific",
    "bers</w>",
    "ines</w>",
    "sch",
    "ars</w>",
    "ome",
    "Buddhist</w>",
    "vast</w>",
    "leading</w>",
    "Although</w>",
    "elit",
    "own</w>",
    "rac",
    "peninsular</w>",
    "ead</w>",
    "far</w>",
    "ms</w>",
    "painting</w>",
    "grou",
    "Raj",
    "cess</w>",
    "ength</w>",
    "further</w>",
    "poin",
    "hou",
    "off</w>",
    "style</w>",
    "pay",
    "stri",
    "work</w>",
    "provi",
    "industr",
    "industry</w>",
    "legis",
    "peration</w>",
    "193",
    "enac",
    "liber",
    "lower</w>",
    "This</w>",
    "continu",
    "eau</w>",
    "now</w>",
    "constitu",
    "spread</w>",
    "remain",
    "survi",
    "pur",
    "uj",
    "kh",
    "shor",
    "28</w>",
    "territories</w>",
    "influenced</w>",
    "play",
    "pical</w>",
    "40</w>",
    "ble</w>",
    "ali</w>",
    "endang",
    "endangered</w>",
    "15</w>",
    "held</w>",
    "until</w>",
    "Janu",
    "January</w>",
    "1965</w>",
    "gency</w>",
    "31</w>",
    "coalition</w>",
    "mem",
    "sing",
    "resid",
    "fun",
    "og",
    "executive</w>",
    "Union</w>",
    "three</w>",
    "courts</w>",
    "clo",
    "glo",
    "ise</w>",
    "market</w>",
    "estim",
    "ales</w>",
    "last</w>",
    "famili",
    "families</w>",
    "developed</w>",
    "chool",
    "om</w>",
    "sculpture</w>",
    "traditions</w>",
    "body</w>",
    "dances</w>",
    "worn</w>",
    "cooked</w>",
    "democ",
    "bian</w>",
    "Sea</w>",
    "thwest</w>",
    "shar",
    "lad",
    "yan",
    "Afric",
    "Africa</w>",
    "55</w>",
    "Their</w>",
    "ther",
    "ins</w>",
    "gradu",
    "Valley</w>",
    "vilis",
    "vilisation</w>",
    "1200</w>",
    "hy",
    "ns</w>",
    "recorded</w>",
    "Dra",
    "Dravi",
    "Dravidi",
    "Dravidian</w>",
    "within</w>",
    "consoli",
    "consolid",
    "Maur",
    "Gup",
    "era</w>",
    "flo",
    "uris",
    "archit",
    "architec",
    "wri",
    "tou",
    "touch",
    "touchab",
    "ef</w>",
    "tures</w>",
    "established</w>",
    "resul",
    "resulting</w>",
    "works</w>",
    "rich</w>",
    "turned</w>",
    "rights</w>",
    "gr",
    "intro",
    "ide",
    "took</w>",
    "influence</w>",
    "ements</w>",
    "ending</w>",
    "compan",
    "ratic</w>",
    "mul",
    "ual</w>",
    "1951</w>",
    "nom",
    "capit",
    "ually</w>",
    "16</w>",
    "ub",
    "reduced</w>",
    "weap",
    "Kashm",
    "Kashmir</w>",
    "pol",
    "wil",
    "dlife</w>",
    "tradition",
    "traditionally</w>",
    "protec",
    "hab",
    "ty",
    "deri",
    "Gree",
    "Ancient</w>",
    "ian</w>",
    "Persian</w>",
    "exten",
    "ering</w>",
    "ained</w>",
    "Hindust",
    "present</w>",
    "dri",
    "extant</w>",
    "Ho",
    "However</w>",
    "fo",
    "about</w>",
    "tle</w>",
    "hen",
    "dar",
    "features</w>",
    "animal</w>",
    "found</w>",
    "olde",
    "oldest</w>",
    "associ",
    "composed</w>",
    "spea",
    "ross</w>",
    "plain</w>",
    "when</w>",
    "forest",
    "agriculture</w>",
    "ight</w>",
    "called</w>",
    "violence</w>",
    "conducted</w>",
    "inn",
    "history</w>",
    "ka</w>",
    "ef",
    "cep",
    "not",
    "his</w>",
    "rock</w>",
    "As</w>",
    "ex</w>",
    "tax",
    "greater</w>",
    "renew",
    "sel",
    "ously</w>",
    "plac",
    "go",
    "sively</w>",
    "ples</w>",
    "agricultural</w>",
    "7th</w>",
    "development</w>",
    "sm",
    "significant</w>",
    "numbers</w>",
    "went</w>",
    "mer",
    "aries</w>",
    "Asian</w>",
    "amic</w>",
    "elites</w>",
    "sa",
    "sol",
    "indigen",
    "indigenous</w>",
    "wards</w>",
    "prac",
    "practi",
    "uni",
    "expres",
    "div",
    "cies</w>",
    "ues</w>",
    "ai",
    "ps</w>",
    "alisation</w>",
    "omy</w>",
    "aff",
    "ingly</w>",
    "bl",
    "ably</w>",
    "out",
    "tors</w>",
    "Many</w>",
    "parliament</w>",
    "tre",
    "ow",
    "directly</w>",
    "saf",
    "gu",
    "ard</w>",
    "decad",
    "decades</w>",
    "employ",
    "cro",
    "War</w>",
    "I</w>",
    "operation</w>",
    "enacted</w>",
    "All</w>",
    "secul",
    "secular</w>",
    "Plate</w>",
    "olog",
    "appro",
    "approx",
    "approxim",
    "approximately</w>",
    "upper</w>",
    "ah",
    "continued</w>",
    "Plat",
    "Plateau</w>",
    "alli",
    "Guj",
    "Dec",
    "Gh",
    "Ghats</w>",
    "Constitu",
    "°</w>",
    "′</w>",
    "vers</w>",
    "17</w>",
    "kil",
    "dist",
    "aksh",
    "ach",
    "tropical</w>",
    "sen</w>",
    "change</w>",
    "12</w>",
    "deci",
    "pass",
    "spon",
    "national</w>",
    "For",
    "vention</w>",
    "Par",
    "right</w>",
    "leader</w>",
    "Sing",
    "Singh</w>",
    "just</w>",
    "member</w>",
    "single</w>",
    "external</w>",
    "support</w>",
    "elected</w>",
    "2026</w>",
    "Ass",
    "common</w>",
    "foreign</w>",
    "constitutional</w>",
    "fundam",
    "fundamental</w>",
    "alth</w>",
    "house</w>",
    "et</w>",
    "he",
    "court</w>",
    "relations</w>",
    "wars</w>",
    "pli",
    "Nuclear</w>",
    "ei",
    "ternational</w>",
    "ergy</w>",
    "2010</w>",
    "fast",
    "global</w>",
    "24</w>",
    "exports</w>",
    "14</w>",
    "2013</w>",
    "before</w>",
    "estimated</w>",
    "pharm",
    "pharmac",
    "pharmace",
    "pharmaceu",
    "pharmaceutical</w>",
    "10</w>",
    "cooking</w>",
    "21</w>",
    "important</w>",
    "edul",
    "oth",
    "San",
    "arn",
    "school",
    "main</w>",
    "below</w>",
    "her</w>",
    "mathematics</w>",
    "sine</w>",
    "z</w>",
    "dram",
    "dramas</w>",
    "dish",
    "sari</w>",
    "oul",
    "commonly</w>",
    "spor",
    "meat</w>",
    "area</w>",
    "populous</w>",
    "independence</w>",
    "racy</w>",
    "Arabian</w>",
    "Bay</w>",
    "Bang",
    "Banglad",
    "Banglade",
    "Bangladesh</w>",
    "Myan",
    "Myanm",
    "Myanmar</w>",
    "near</w>",
    "Sri</w>",
    "Lank",
    "Nic",
    "Nicob",
    "Nicobar</w>",
    "Islands</w>",
    "share</w>",
    "ail",
    "Indon",
    "Indone",
    "Indonesia</w>",
    "Modern</w>",
    "predomin",
    "isol",
    "hun",
    "marg",
    "margins</w>",
    "basin</w>",
    "olving</w>",
    "gradually</w>",
    "Ci",
    "Civilisation</w>",
    "aic</w>",
    "northwest</w>",
    "suppl",
    "anted</w>",
    "aris",
    "here",
    "heredi",
    "Ear",
    "Early</w>",
    "gave</w>",
    "Maurya</w>",
    "Gupta</w>",
    "pi",
    "vity</w>",
    "architecture</w>",
    "status</w>",
    "untouchab",
    "beli",
    "Mid",
    "Middle</w>",
    "cultures</w>",
    "1st</w>",
    "Islam</w>",
    "oro",
    "armies</w>",
    "plains</w>",
    "smo",
    "eval</w>",
    "Vi",
    "anag",
    "ara</w>",
    "last",
    "Sikhism</w>",
    "religion</w>",
    "expan",
    "pea",
    "expand",
    "colon",
    "colonial</w>",
    "sover",
    "sovereig",
    "sovereign",
    "sovereignty</w>",
    "185",
    "introduced</w>",
    "nati",
    "nation",
    "national",
    "oted</w>",
    "20</w>",
    "primary</w>",
    "loss</w>",
    "ented</w>",
    "mig",
    "partition</w>",
    "ling",
    "society</w>",
    "2023</w>",
    "nomin",
    "capita</w>",
    "income</w>",
    "64</w>",
    "fast</w>",
    "hub",
    "class</w>",
    "pover",
    "poverty</w>",
    "inequ",
    "inequality</w>",
    "disput",
    "disputes</w>",
    "20th</w>",
    "pollu",
    "ts",
    "wildlife</w>",
    "supported</w>",
    "protected</w>",
    "habit",
    "mediately</w>",
    "refer",
    "Greek</w>",
    "prov",
    "indh",
    "Asi",
    "ep",
    "name</w>",
    "originally</w>",
    "North</w>",
    "curren",
    "currency</w>",
    "19th</w>",
    "13",
    "13th</w>",
    "ens</w>",
    "reached</w>",
    "80</w>",
    "ini",
    "initi",
    "etic</w>",
    "30</w>",
    "oli",
    "animals</w>",
    "urred</w>",
    "here</w>",
    "Mohen",
    "Mohenj",
    "Mohenjo</w>",
    "daro</w>",
    "ira</w>",
    "eri",
    "charac",
    "character",
    "stand",
    "ste",
    "seals</w>",
    "writt",
    "written</w>",
    "arts</w>",
    "oral</w>",
    "today</w>",
    "Aryan</w>",
    "across</w>",
    "ining</w>",
    "set",
    "divi",
    "being</w>",
    "ken</w>",
    "parts</w>",
    "would</w>",
    "Mah",
    "range</w>",
    "urban",
    "urbanisation</w>",
    "tak",
    "varn",
    "system",
    "those</w>",
    "Buddha</w>",
    "ured</w>",
    "could</w>",
    "these</w>",
    "dro",
    "gence</w>",
    "geograph",
    "Asho",
    "Ashoka</w>",
    "bri",
    "ep</w>",
    "texts</w>",
    "Kal",
    "ense</w>",
    "adop",
    "numer",
    "forests</w>",
    "bodi",
    "compl",
    "administration</w>",
    "devo",
    "rather</w>",
    "asser",
    "assert</w>",
    "self</w>",
    "ected</w>",
    "ature</w>",
    "Va",
    "six",
    "Pall",
    "Pallav",
    "avour",
    "serv",
    "placed</w>",
    "West</w>",
    "cultural</w>",
    "mu",
    "much</w>",
    "cle",
    "way</w>",
    "classes</w>",
    "show</w>",
    "6th</w>",
    "small</w>",
    "pat",
    "Tem",
    "ever",
    "every",
    "under",
    "another</w>",
    "eff",
    "effec",
    "merch",
    "some",
    "sometimes</w>",
    "cav",
    "Islamic</w>",
    "ays</w>",
    "law",
    "laws</w>",
    "visi",
    "sans</w>",
    "there",
    "ening</w>",
    "Sha",
    "tradition</w>",
    "came</w>",
    "then</w>",
    "super",
    "ors</w>",
    "anced</w>",
    "aci",
    "practices</w>",
    "centr",
    "tribal</w>",
    "Ak",
    "policies</w>",
    "reven",
    "revenues</w>",
    "regul",
    "sil",
    "maint",
    "Mar",
    "reco",
    "recog",
    "Ex",
    "commercial</w>",
    "process</w>",
    "increasingly</w>",
    "companies</w>",
    "strength</w>",
    "crucial</w>",
    "subsequent</w>",
    "due</w>",
    "goo",
    "goods</w>",
    "having</w>",
    "rail",
    "Europ",
    "Europe</w>",
    "bel",
    "bellion</w>",
    "princ",
    "band",
    "guard</w>",
    "ush</w>",
    "spite</w>",
    "consum",
    "provided</w>",
    "co</w>",
    "victor",
    "decade</w>",
    "Econ",
    "related</w>",
    "separ",
    "Ge",
    "Geograph",
    "plate</w>",
    "70</w>",
    "crust</w>",
    "Eura",
    "iz",
    "sli",
    "lay",
    "rap",
    "fil",
    "makes</w>",
    "abo",
    "Thar</w>",
    "Deser",
    "Desert</w>",
    "remaining</w>",
    "Gujar",
    "Decc",
    "Deccan</w>",
    "contains</w>",
    "old</w>",
    "Himalayan</w>",
    "rivers</w>",
    "anti",
    "tra</w>",
    "drain</w>",
    "prev",
    "od",
    "ada</w>",
    "kilom",
    "kilomet",
    "kilometres</w>",
    "mi</w>",
    "belong</w>",
    "consists</w>",
    "11</w>",
    "latter</w>",
    "limate</w>",
    "summ",
    "summer</w>",
    "win",
    "soon</w>",
    "2018</w>",
    "cause</w>",
    "Bio",
    "employed</w>",
    "contain</w>",
    "endemic</w>",
    "mamm",
    "mammals</w>",
    "rep",
    "gation</w>",
    "played</w>",
    "100</w>",
    "exchange</w>",
    "extinc",
    "ened</w>",
    "cally</w>",
    "great</w>",
    "ulture</w>",
    "recent</w>",
    "respon",
    "1935</w>",
    "added</w>",
    "anc",
    "reser",
    "tics</w>",
    "generally</w>",
    "Janata</w>",
    "consider",
    "office</w>",
    "1962</w>",
    "ur</w>",
    "chosen</w>",
    "Indira</w>",
    "1967</w>",
    "defe",
    "declar",
    "ergency</w>",
    "oppo",
    "ministers</w>",
    "Sikh</w>",
    "den</w>",
    "Fron",
    "Front</w>",
    "V</w>",
    "organisation</w>",
    "ha</w>",
    "governments</w>",
    "follow",
    "Bi",
    "Democ",
    "ND",
    "NDA</w>",
    "UP",
    "UPA</w>",
    "2009</w>",
    "2024</w>",
    "Constituent</w>",
    "Assem",
    "Assemb",
    "Assembly</w>",
    "ari",
    "spic",
    "ports</w>",
    "legislat",
    "village</w>",
    "distinc",
    "presid",
    "president</w>",
    "vice</w>",
    "head",
    "down</w>",
    "becom",
    "becoming</w>",
    "1950s</w>",
    "Non</w>",
    "ese</w>",
    "suppli",
    "weapons</w>",
    "addi",
    "signed</w>",
    "Tre",
    "Treat",
    "Treaty</w>",
    "discri",
    "discrimin",
    "ory</w>",
    "2008</w>",
    "energy</w>",
    "nation</w>",
    "average</w>",
    "Dem",
    "Demograph",
    "Demographics</w>",
    "side</w>",
    "trade</w>",
    "22</w>",
    "sector</w>",
    "18</w>",
    "2022</w>",
    "total</w>",
    "42</w>",
    "gas</w>",
    "reasing</w>",
    "27</w>",
    "63</w>",
    "residents</w>",
    "birth",
    "fem",
    "cide</w>",
    "comprom",
    "compromise</w>",
    "formal</w>",
    "schedul",
    "scheduled</w>",
    "others</w>",
    "du</w>",
    "ani</w>",
    "ice</w>",
    "schools</w>",
    "WH",
    "WHO",
    "WHO</w>",
    "brea",
    "thing</w>",
    "castes</w>",
    "marriages</w>",
    "anged</w>",
    "less</w>",
    "natal</w>",
    "influences</w>",
    "ana</w>",
    "different</w>",
    "sites</w>",
    "anta</w>",
    "la</w>",
    "manus",
    "manuscri",
    "manuscrip",
    "folk</w>",
    "mathematical</w>",
    "transmit",
    "transmitted</w>",
    "contributions</w>",
    "exam",
    "example</w>",
    "wide</w>",
    "back</w>",
    "Dance</w>",
    "For</w>",
    "oulder</w>",
    "waist</w>",
    "li</w>",
    "kam",
    "kamee",
    "kameez</w>",
    "chur",
    "churid",
    "churidars</w>",
    "wear</w>",
    "dishes</w>",
    "veg",
    "veget",
    "ricke",
    "ricket</w>",
    "Republic</w>",
    "democracy</w>",
    "Oce",
    "Ocean</w>",
    "borders</w>",
    "Nep",
    "Thail",
    "Thailand</w>",
    "humans</w>",
    "occupation</w>",
    "antly</w>",
    "isolation</w>",
    "hunter</w>",
    "gather",
    "gatherers</w>",
    "highly</w>",
    "archaic</w>",
    "diffused</w>",
    "hym",
    "hymns</w>",
    "exist",
    "existing</w>",
    "supplanted</w>",
    "arisen</w>",
    "cla",
    "claim",
    "claiming</w>",
    "loose</w>",
    "kni",
    "knit</w>",
    "flouris",
    "flourish",
    "creati",
    "creativity</w>",
    "declin",
    "untouchability</w>",
    "organised</w>",
    "belief</w>",
    "exported</w>",
    "Chri",
    "Christi",
    "Christian",
    "Christianity</w>",
    "aism</w>",
    "Zoro",
    "Zoroast",
    "Zoroastri",
    "Zoroastrian",
    "Zoroastrianism</w>",
    "coasts</w>",
    "overr",
    "overran</w>",
    "Sul",
    "Sultanate</w>",
    "dre",
    "drew</w>",
    "net",
    "medieval</w>",
    "Vij",
    "Vijay",
    "Vijayanag",
    "Vijayanagara</w>",
    "composi",
    "tional",
    "hered</w>",
    "expansion</w>",
    "relative</w>",
    "peace</w>",
    "expanding</w>",
    "1858</w>",
    "nationalist</w>",
    "non",
    "nonviol",
    "nonviolent</w>",
    "sist",
    "factor</w>",
    "tioned</w>",
    "independent</w>",
    "ions</w>",
    "dominion</w>",
    "scale</w>",
    "prec",
    "migration</w>",
    "democratic</w>",
    "multi",
    "multi</w>",
    "ethn",
    "36",
    "361</w>",
    "nominal</w>",
    "annually</w>",
    "01</w>",
    "74</w>",
    "inform",
    "information</w>",
    "cost</w>",
    "increasing</w>",
    "ran",
    "neigh",
    "neighbo",
    "unres",
    "unresolved</w>",
    "gender</w>",
    "chil",
    "child</w>",
    "lev",
    "level",
    "levels</w>",
    "pollution</w>",
    "mega",
    "megadiverse</w>",
    "biodiversity</w>",
    "hots",
    "hotspo",
    "hotspots</w>",
    "Ety",
    "Etymo",
    "Etymolog",
    "Etymology</w>",
    "immediately</w>",
    "Cl",
    "Class",
    "Classical</w>",
    "Lati",
    "sely</w>",
    "defined</w>",
    "historical</w>",
    "stre",
    "ching</w>",
    "ym",
    "Ἰν",
    "Ἰνδ",
    "Ri",
    "Ach",
    "Acha",
    "Achaem",
    "Achaemen",
    "Old</w>",
    "id</w>",
    "Sindh",
    "Asians</w>",
    "Bharat</w>",
    "[</w>",
    "aː",
    "]</w>",
    "Bharat",
    "sha</w>",
    "appli",
    "applied</w>",
    "gained</w>",
    "Hindustan</w>",
    "mean",
    "meaning</w>",
    "ring</w>",
    "Histor",
    "History</w>",
    "och",
    "data</w>",
    "line",
    "anat",
    "ssi",
    "vid",
    "vidence</w>",
    "Me",
    "Bal",
    "dates</w>",
    "Dom",
    "cation</w>",
    "bar",
    "cat",
    "cattle</w>",
    "occurred</w>",
    "hol",
    "characteristic</w>",
    "included</w>",
    "standar",
    "standardi",
    "standardised</w>",
    "script</w>",
    "ettes</w>",
    "Net",
    "tow",
    "towns</w>",
    "villages</w>",
    "past",
    "pastoral</w>",
    "Bet",
    "Between</w>",
    "associated</w>",
    "what</w>",
    "speaking</w>",
    "bes</w>",
    "nex",
    "next</w>",
    "thes</w>",
    "jo",
    "setting</w>",
    "impl",
    "pared</w>",
    "settl",
    "settlement</w>",
    "may</w>",
    "involved</w>",
    "creating</w>",
    "broad</w>",
    "fami",
    "family</w>",
    "mainly</w>",
    "codi",
    "āy",
    "chap",
    "tel",
    "regist",
    "rough",
    "forti",
    "fortified</w>",
    "varna</w>",
    "ethical</w>",
    "systems</w>",
    "tea",
    "hav",
    "birth</w>",
    "xed</w>",
    "heredit",
    "hereditary</w>",
    "living</w>",
    "beginn",
    "beginnings</w>",
    "back",
    "grand",
    "son</w>",
    "ca</w>",
    "23",
    "brief",
    "briefly</w>",
    "hubs</w>",
    "cept</w>",
    "notable</w>",
    "produced</w>",
    "Fol",
    "Following</w>",
    "adopted</w>",
    "subsequently</w>",
    "policy</w>",
    "edic",
    "edicts</w>",
    "promo",
    "wel",
    "welf",
    "welfare</w>",
    "mental</w>",
    "historians</w>",
    "5th</w>",
    "complex</w>",
    "Pl",
    "Plain</w>",
    "mode",
    "model</w>",
    "devotion</w>",
    "refl",
    "flow",
    "flowering</w>",
    "literature</w>",
    "sci",
    "Sang",
    "ruled</w>",
    "Chol",
    "respec",
    "tively</w>",
    "Kaver",
    "Kaveri</w>",
    "valley</w>",
    "far",
    "Pallavas</w>",
    "Sim",
    "Simul",
    "Simultan",
    "Simultane",
    "Simultaneously</w>",
    "gods</w>",
    "particul",
    "particular</w>",
    "extensively</w>",
    "Medi",
    "clear",
    "cleared</w>",
    "make</w>",
    "ruling</w>",
    "ences</w>",
    "They</w>",
    "yal",
    "yalty</w>",
    "temples</w>",
    "patron",
    "citi",
    "citiz",
    "citizens</w>",
    "Temple</w>",
    "various</w>",
    "siz",
    "appe",
    "appear</w>",
    "where</w>",
    "fel",
    "une",
    "pp",
    "Malay",
    "merchants</w>",
    "mis",
    "ning</w>",
    "10",
    "10th</w>",
    "adi",
    "using</w>",
    "hor",
    "united</w>",
    "icity</w>",
    "repe",
    "repeat",
    "repeated",
    "repeatedly</w>",
    "event",
    "eventually</w>",
    "rup",
    "largely</w>",
    "ject</w>",
    "cust",
    "ol</w>",
    "devast",
    "scen",
    "stics</w>",
    "artists</w>",
    "artisans</w>",
    "buil",
    "building</w>",
    "portion</w>",
    "rulers</w>",
    "again</w>",
    "warri",
    "warriors</w>",
    "did</w>",
    "stead</w>",
    "bal",
    "administr",
    "bon",
    "bonds</w>",
    "Akb",
    "Akbar</w>",
    "ung</w>",
    "emper",
    "emperor</w>",
    "mand",
    "taxes</w>",
    "enter</w>",
    "larger</w>",
    "markets</w>",
    "17th</w>",
    "literary</w>",
    "texti",
    "New",
    "groups</w>",
    "Mara",
    "Marath",
    "Rajpu",
    "Rajputs</w>",
    "Sikhs</w>",
    "lab",
    "oration</w>",
    "adver",
    "commerce</w>",
    "rag",
    "imper",
    "imperial</w>",
    "18th</w>",
    "litated</w>",
    "enab",
    "aut",
    "affa",
    "affair",
    "affairs</w>",
    "lines</w>",
    "notably</w>",
    "presence</w>",
    "coastal</w>",
    "resour",
    "resources</w>",
    "advanced</w>",
    "attra",
    "attrac",
    "company</w>",
    "17",
    "65</w>",
    "access</w>",
    "manu",
    "manufac",
    "manufactur",
    "mat",
    "materi",
    "materials</w>",
    "consider</w>",
    "onset</w>",
    "severely</w>",
    "iled</w>",
    "reform</w>",
    "appoin",
    "Dal",
    "Gen",
    "Gener",
    "General</w>",
    "ess",
    "essenti",
    "essential</w>",
    "dem",
    "railw",
    "railways</w>",
    "duction</w>",
    "Dis",
    "ection</w>",
    "asive</w>",
    "reforms</w>",
    "own",
    "princes</w>",
    "rebellion</w>",
    "roc",
    "found",
    "unit",
    "unitary</w>",
    "limited</w>",
    "safe",
    "safeguard</w>",
    "again",
    "against</w>",
    "rest</w>",
    "hal",
    "half</w>",
    "marked</w>",
    "farm",
    "farmers</w>",
    "dependent</w>",
    "structure</w>",
    "born",
    "borne</w>",
    "industri",
    "industrial</w>",
    "generated</w>",
    "alled</w>",
    "food</w>",
    "consump",
    "consumption</w>",
    "criti",
    "nas",
    "cent</w>",
    "repres",
    "legisl",
    "ma</w>",
    "1930s</w>",
    "slow</w>",
    "victories</w>",
    "ses</w>",
    "II</w>",
    "push</w>",
    "ge</w>",
    "advent</w>",
    "temper",
    "omic</w>",
    "liberalisation</w>",
    "transformed</w>",
    "ham",
    "Na",
    "separati",
    "Jamm",
    "Jammu</w>",
    "Northeast</w>",
    "territorial</w>",
    "Geography</w>",
    "accoun",
    "bul",
    "bulk</w>",
    "onic</w>",
    "Au",
    "geolog",
    "cess",
    "supercontinent</w>",
    "Gon",
    "Gond",
    "Gondwan",
    "Gondwana</w>",
    "spre",
    "spread",
    "spreading</w>",
    "obstruc",
    "layer</w>",
    "tain</w>",
    "Ti",
    "Im",
    "rapid",
    "rapidly</w>",
    "sedi",
    "sediment</w>",
    "Gang",
    "Gangetic</w>",
    "original</w>",
    "above</w>",
    "Arav",
    "Aravalli",
    "extend",
    "extends</w>",
    "erly</w>",
    "To</w>",
    "lies</w>",
    "survives</w>",
    "ranges</w>",
    "chains</w>",
    "coast</w>",
    "Gujarat</w>",
    "coal</w>",
    "Jhar",
    "Jharkh",
    "Jharkhand</w>",
    "mass</w>",
    "flan",
    "Eastern</w>",
    "fash",
    "35",
    "30",
    "lati",
    "latit",
    "latitud",
    "Maj",
    "Major</w>",
    "subst",
    "substanti",
    "substantially</w>",
    "flow</w>",
    "Brahma",
    "Brahmapu",
    "Brahmaputra</w>",
    "Ko",
    "Kosi</w>",
    "extre",
    "extreme",
    "extremely</w>",
    "gradi",
    "sition</w>",
    "floo",
    "course</w>",
    "prevent</w>",
    "adi</w>",
    "coastline</w>",
    "meas",
    "700</w>",
    "length</w>",
    "94</w>",
    "Laksh",
    "Lakshad",
    "Lakshadwe",
    "Lakshadweep</w>",
    "43</w>",
    "shores</w>",
    "46</w>",
    "marsh",
    "marshy</w>",
    "shared</w>",
    "vol",
    "volcan",
    "Climate</w>",
    "strong",
    "strongly</w>",
    "winds</w>",
    "simil",
    "similar</w>",
    "role</w>",
    "Jun",
    "June</w>",
    "Oc",
    "Octo",
    "October</w>",
    "clim",
    "climatic</w>",
    "dry</w>",
    "C</w>",
    "gl",
    "curr",
    "projec",
    "dly</w>",
    "Biodiversity</w>",
    "countri",
    "countries</w>",
    "habitat</w>",
    "13</w>",
    "repti",
    "amph",
    "amphi",
    "fis",
    "fish</w>",
    "plant</w>",
    "endemism</w>",
    "dense</w>",
    "moist</w>",
    "39</w>",
    "decidu",
    "deciduous</w>",
    "thor",
    "thorn</w>",
    "medic",
    "os",
    "osa</w>",
    "ended</w>",
    "Eurasia</w>",
    "Sti",
    "Still</w>",
    "contra",
    "af</w>",
    "key</w>",
    "threat",
    "threatened</w>",
    "ger</w>",
    "extinct</w>",
    "carri",
    "open</w>",
    "zed</w>",
    "blac",
    "black",
    "blackbu",
    "blackbuck</w>",
    "che",
    "cheet",
    "cheeta",
    "cheetah</w>",
    "response</w>",
    "1980</w>",
    "amend",
    "amendments</w>",
    "eigh",
    "sphere</w>",
    "serves</w>",
    "Ram",
    "Poli",
    "Politics</w>",
    "recogn",
    "parties</w>",
    "Party</w>",
    "centre</w>",
    "wing</w>",
    "Jaw",
    "Jawa",
    "Jawahar",
    "Jawaharl",
    "Jawaharlal</w>",
    "remained</w>",
    "comfor",
    "comfort",
    "comfortable</w>",
    "died</w>",
    "1964</w>",
    "Bah",
    "Shast",
    "Shastri</w>",
    "She</w>",
    "1971</w>",
    "Li",
    "1975</w>",
    "declared</w>",
    "spending</w>",
    "civ",
    "civil</w>",
    "Emergency</w>",
    "voted</w>",
    "lasted</w>",
    "returned</w>",
    "assass",
    "assassin",
    "assassinated</w>",
    "1984</w>",
    "suc",
    "cee",
    "Rajiv",
    "Rajiv</w>",
    "alliance</w>",
    "round</w>",
    "Lankan</w>",
    "intervention</w>",
    "Nar",
    "sim",
    "ful",
    "followed</w>",
    "serving</w>",
    "1998</w>",
    "Vaj",
    "Vajpay",
    "Vajpaye",
    "Vajpayee</w>",
    "short</w>",
    "lived</w>",
    "El",
    "ections</w>",
    "1999</w>",
    "Democratic</w>",
    "Alli",
    "Alliance</w>",
    "comple",
    "2004</w>",
    "defeated</w>",
    "Man",
    "han</w>",
    "Presid",
    "President</w>",
    "ia</w>",
    "2014</w>",
    "Modi</w>",
    "ute</w>",
    "port</w>",
    "uncommon</w>",
    "eed</w>",
    "1949</w>",
    "fram",
    "frame",
    "framework</w>",
    "exer",
    "exerc",
    "head</w>",
    "legislature</w>",
    "hous",
    "houses</w>",
    "Sab",
    "Sabha</w>",
    "deleg",
    "delegates</w>",
    "every</w>",
    "atives</w>",
    "tives</w>",
    "An</w>",
    "institution</w>",
    "anch",
    "commit",
    "committe",
    "legal</w>",
    "Arti",
    "cles</w>",
    "Common",
    "Commonwe",
    "Commonwealth</w>",
    "ises</w>",
    "seats</w>",
    "cil</w>",
    "Min",
    "headed</w>",
    "emented</w>",
    "compri",
    "comprising</w>",
    "supre",
    "supreme</w>",
    "25</w>",
    "juris",
    "jurisdi",
    "jurisdic",
    "jurisdiction</w>",
    "involving</w>",
    "ke</w>",
    "vene</w>",
    "action</w>",
    "ital</w>",
    "Ter",
    "asis</w>",
    "city</w>",
    "stric",
    "Foreign</w>",
    "ree</w>",
    "dispu",
    "disputed</w>",
    "close</w>",
    "So",
    "Sovi",
    "Soviet</w>",
    "1960s</w>",
    "arms</w>",
    "test</w>",
    "produ",
    "produce</w>",
    "additional</w>",
    "Prolif",
    "Prolifer",
    "Proliferation</w>",
    "discriminat",
    "discriminatory</w>",
    "redi",
    "doc",
    "civili",
    "civilian</w>",
    "agre",
    "recei",
    "International</w>",
    "At",
    "Agency</w>",
    "dom</w>",
    "Economy</w>",
    "economies</w>",
    "domesti",
    "domestic</w>",
    "fastest</w>",
    "annual</w>",
    "historically</w>",
    "fall</w>",
    "group</w>",
    "empha",
    "lows</w>",
    "Or",
    "Organ",
    "Organiz",
    "Organization</w>",
    "force</w>",
    "2017</w>",
    "service</w>",
    "highest</w>",
    "contributed</w>",
    "1985</w>",
    "2021</w>",
    "nin",
    "ninth</w>",
    "exporter</w>",
    "petro",
    "calend",
    "several</w>",
    "2007</w>",
    "Some</w>",
    "grow</w>",
    "passing</w>",
    "includes</w>",
    "producer</w>",
    "top</w>",
    "biotec",
    "biotech</w>",
    "electr",
    "gig",
    "gigaw",
    "gigawat",
    "gigawatts</w>",
    "renewable</w>",
    "green",
    "greenhouse</w>",
    "emis",
    "emissions</w>",
    "Inc",
    "brou",
    "brought</w>",
    "olu",
    "olution</w>",
    "decreasing</w>",
    "live</w>",
    "births</w>",
    "where",
    "whereas</w>",
    "41</w>",
    "sex</w>",
    "rati",
    "according</w>",
    "females</w>",
    "males</w>",
    "foe",
    "foeti",
    "foeticide</w>",
    "stud",
    "study</w>",
    "wanted</w>",
    "do</w>",
    "dy",
    "53</w>",
    "Mum",
    "Mumb",
    "Mumbai</w>",
    "abad</w>",
    "med",
    "Langu",
    "Languages</w>",
    "bre",
    "break",
    "speak",
    "speakers</w>",
    "tag",
    "ists</w>",
    "Dev",
    "sole</w>",
    "ii</w>",
    "associate</w>",
    "international</w>",
    "numerals</w>",
    "Ur",
    "Urdu</w>",
    "riya</w>",
    "Punjabi</w>",
    "Reli",
    "Religi",
    "Religion</w>",
    "efs</w>",
    "Hindus</w>",
    "Muslims</w>",
    "adher",
    "aith</w>",
    "expression</w>",
    "shi",
    "ship</w>",
    "Sever",
    "Several</w>",
    "Sarn",
    "Ni",
    "82</w>",
    "ap</w>",
    "percent",
    "percentage</w>",
    "points</w>",
    "impro",
    "Ker",
    "Kerala</w>",
    "91</w>",
    "29</w>",
    "colleg",
    "colleges</w>",
    "affir",
    "He",
    "Health</w>",
    "tuber",
    "tubercul",
    "tuberculo",
    "tuberculosis</w>",
    "dise",
    "diseas",
    "disease</w>",
    "ath</w>",
    "breathing</w>",
    "Culture</w>",
    "Brahm",
    "Vais",
    "bott",
    "bottom</w>",
    "Out",
    "therefore</w>",
    "ach</w>",
    "ogam",
    "ogamy</w>",
    "formally</w>",
    "parents</w>",
    "divor",
    "divorce</w>",
    "married</w>",
    "turn</w>",
    "Vis",
    "changed</w>",
    "usu",
    "usually</w>",
    "carved</w>",
    "excav",
    "excavated</w>",
    "best</w>",
    "therea",
    "thereaf",
    "thereafter</w>",
    "prob",
    "probably</w>",
    "wood</w>",
    "figure</w>",
    "give</w>",
    "Shiv",
    "Shiva</w>",
    "either</w>",
    "cut</w>",
    "Aj",
    "Ajanta</w>",
    "Kar",
    "Jain</w>",
    "artisti",
    "artistic</w>",
    "saw</w>",
    "dominance</w>",
    "Cav",
    "Caves</w>",
    "ff</w>",
    "bron",
    "bronz",
    "achi",
    "Nat",
    "paint",
    "paintings</w>",
    "derived</w>",
    "ple",
    "inno",
    "innov",
    "everyday</w>",
    "ba</w>",
    "Vedi",
    "Vedic</w>",
    "orally</w>",
    "manuscript</w>",
    "mathematici",
    "mathematicians</w>",
    "gon",
    "gonome",
    "cosine</w>",
    "series</w>",
    "Hindustani</w>",
    "Carn",
    "Carnatic</w>",
    "pop</w>",
    "adem",
    "ademi</w>",
    "eight</w>",
    "uk",
    "promin",
    "asi</w>",
    "Chha",
    "Chhau</w>",
    "Yaksh",
    "Yakshag",
    "Yakshagana</w>",
    "tu</w>",
    "festi",
    "Bhang",
    "Bhangra</w>",
    "ables</w>",
    "cloth</w>",
    "shoulder</w>",
    "irt</w>",
    "garment</w>",
    "shal",
    "tun",
    "kur",
    "kurta</w>",
    "pically</w>",
    "nar",
    "narro",
    "narrow</w>",
    "pants</w>",
    "ams</w>",
    "remain</w>",
    "occa",
    "occasions</w>",
    "sports</w>",
    "jac",
    "jacke",
    "jackets</w>",
    "dd",
    "isine</w>",
    "cere",
    "cereal</w>",
    "savour",
    "savoury</w>",
    "steam",
    "steamed</w>",
    "bread</w>",
    "ake</w>",
    "garli",
    "garlic</w>",
    "vegetar",
    "feature</w>",
    "techni",
    "techniqu",
    "partially</w>",
    "aled</w>",
    "tand",
    "tando",
    "ov",
    "kho</w>",
    "Che",
    "Chess</w>",
    "Cham",
    "Cricket</w>",
    "Cup",
    "Cups</w>",
    "web",
    "offici",
    "officially</w>",
    "seven",
    "seventh</w>",
    "Boun",
    "Bounded</w>",
    "southwest</w>",
    "southeast</w>",
    "shares</w>",
    "Nepal</w>",
    "Bhut",
    "Bhutan</w>",
    "Lanka</w>",
    "Mal",
    "Maldi",
    "Maldives</w>",
    "mari",
    "maritime</w>",
    "border</w>",
    "arri",
    "arrived</w>",
    "predominantly</w>",
    "Set",
    "Sett",
    "Settled</w>",
    "evolving</w>",
    "daw",
    "dawn",
    "dawnings</w>",
    "pre</w>",
    "proclaiming</w>",
    "orders</w>",
    "unlin",
    "unlinked</w>",
    "heredity</w>",
    "consolidations</w>",
    "Empi",
    "Empires</w>",
    "flourishing</w>",
    "writing</w>",
    "declined</w>",
    "scripts</w>",
    "Jud",
    "Judaism</w>",
    "2n",
    "2nd</w>",
    "intermit",
    "intermitt",
    "intermittently</w>",
    "cosmo",
    "cosmopo",
    "cosmopolit",
    "cosmopolitan</w>",
    "networks</w>",
    "lasting</w>",
    "composite</w>",
    "rejec",
    "rejecting</w>",
    "institu",
    "institutional",
    "institutionalised</w>",
    "ushered</w>",
    "architectural</w>",
    "legacy</w>",
    "Gra",
    "Gradu",
    "Gradually</w>",
    "consolidated</w>",
    "Cro",
    "Crown</w>",
    "promised</w>",
    "granted</w>",
    "slow",
    "slowly</w>",
    "technological</w>",
    "ideas</w>",
    "roo",
    "root</w>",
    "mov",
    "movements</w>",
    "Noted</w>",
    "resist",
    "resistance</w>",
    "1920</w>",
    "partitioned</w>",
    "dominions</w>",
    "unprec",
    "unpreced",
    "unprecedented</w>",
    "accompan",
    "accompani",
    "accompanied</w>",
    "governed</w>",
    "plur",
    "plural",
    "pluralistic</w>",
    "multiling",
    "multilingual</w>",
    "ethnic</w>",
    "601</w>",
    "hub</w>",
    "weapon</w>",
    "ranks</w>",
    "expen",
    "expendi",
    "expenditure</w>",
    "neighbour",
    "neighbours</w>",
    "socio</w>",
    "chall",
    "challeng",
    "challenges</w>",
    "faces</w>",
    "mal",
    "maln",
    "malnut",
    "malnutri",
    "malnutrition</w>",
    "rising</w>",
    "view",
    "viewed</w>",
    "tol",
    "toler",
    "tolerance</w>",
    "habitats</w>",
    "Ox",
    "Oxfor",
    "Oxford</w>",
    "Dic",
    "Diction",
    "Dictionary</w>",
    "proper</w>",
    "nou",
    "noun</w>",
    "derives</w>",
    "Latin</w>",
    "reference</w>",
    "loo",
    "loosely</w>",
    "stret",
    "stretching</w>",
    "Further</w>",
    "etym",
    "etymons</w>",
    "Hel",
    "Hellen",
    "Hellenistic</w>",
    "Ἰνδί",
    "Ἰνδία",
    "Ἰνδία</w>",
    "Indos</w>",
    "Ἰνδό",
    "Ἰνδός",
    "Ἰνδός</w>",
    "River</w>",
    "Achaemenian</w>",
    "province</w>",
    "Achaemenid</w>",
    "Sindhu</w>",
    "specific",
    "specifically</w>",
    "extension</w>",
    "settled</w>",
    "Greeks</w>",
    "referred</w>",
    "Indo",
    "Indoi</w>",
    "Bhā",
    "Bhāra",
    "Bhārat</w>",
    "pron",
    "pronoun",
    "pronounced</w>",
    "ˈb",
    "ˈbʱ",
    "ˈbʱaː",
    "ˈbʱaːɾ",
    "ˈbʱaːɾə",
    "ˈbʱaːɾət</w>",
    "men",
    "mentioned</w>",
    "epic</w>",
    "poe",
    "poetry</w>",
    "variations</w>",
    "rend",
    "rendering</w>",
    "Bharatav",
    "Bharatavar",
    "Bharatavarsha</w>",
    "native</w>",
    "ɦɪ",
    "ɦɪn",
    "ɦɪnd",
    "ɦɪndʊ",
    "ɦɪndʊˈ",
    "ɦɪndʊˈst",
    "ɦɪndʊˈstaː",
    "ɦɪndʊˈstaːn</w>",
    "varied</w>",
    "referring</w>",
    "encomp",
    "encompass",
    "encompassing</w>",
    "entire",
    "entirety</w>",
    "Bas",
    "Based</w>",
    "coale",
    "coalesc",
    "coalescence</w>",
    "Mit",
    "Mitoch",
    "Mitochon",
    "Mitochondri",
    "Mitochondrial</w>",
    "DN",
    "DNA</w>",
    "Y</w>",
    "Chrom",
    "Chromo",
    "Chromosome</w>",
    "lineages</w>",
    "anatom",
    "anatomically</w>",
    "Hom",
    "Homo</w>",
    "sap",
    "sapi",
    "sapiens</w>",
    "like",
    "likeli",
    "likelih",
    "likelihood</w>",
    "initially</w>",
    "varying</w>",
    "genetic</w>",
    "fossi",
    "fossils</w>",
    "date</w>",
    "Evidence</w>",
    "neoli",
    "neolith",
    "neolithic</w>",
    "Mehr",
    "Mehrgar",
    "Mehrgarh</w>",
    "Baloch",
    "Balochistan</w>",
    "7000</w>",
    "Domesti",
    "Domestication</w>",
    "grain</w>",
    "producing</w>",
    "plants</w>",
    "barle",
    "barley</w>",
    "humped</w>",
    "ze",
    "zebu",
    "zebu</w>",
    "evolved</w>",
    "flourished</w>",
    "2500</w>",
    "1900</w>",
    "Centred</w>",
    "Har",
    "Harapp",
    "Harappa</w>",
    "Dhol",
    "Dholav",
    "Dholavira</w>",
    "Gan",
    "Ganw",
    "Ganweri",
    "Ganweriw",
    "Ganweriwala</w>",
    "Rak",
    "Rakhig",
    "Rakhigar",
    "Rakhigarhi</w>",
    "weigh",
    "weights</w>",
    "steati",
    "steatite</w>",
    "plann",
    "planning</w>",
    "cra",
    "craf",
    "crafts</w>",
    "pot",
    "potter",
    "pottery</w>",
    "terra",
    "terraco",
    "terracot",
    "terracotta</w>",
    "statu",
    "statuettes</w>",
    "Networks</w>",
    "agr",
    "agro</w>",
    "1500</w>",
    "evidence</w>",
    "Rig</w>",
    "Ved",
    "Veda</w>",
    "scripture</w>",
    "tribes</w>",
    "migr",
    "migrating</w>",
    "Afgh",
    "Afghan",
    "Afghanistan</w>",
    "settling</w>",
    "swa",
    "swathes</w>",
    "adjo",
    "adjoining</w>",
    "deforest",
    "deforested</w>",
    "fires</w>",
    "employing</w>",
    "iron</w>",
    "implements</w>",
    "prepared</w>",
    "driving</w>",
    "preexisting</w>",
    "ens",
    "ensl",
    "enslav",
    "enslaving</w>",
    "divide</w>",
    "spo",
    "spoken</w>",
    "refin",
    "refined</w>",
    "gram",
    "gramm",
    "grammati",
    "grammatical</w>",
    "emerge</w>",
    "codified</w>",
    "Aṣ",
    "Aṣṭ",
    "Aṣṭā",
    "Aṣṭādh",
    "Aṣṭādhy",
    "Aṣṭādhyāy",
    "Aṣṭādhyāyī",
    "Aṣṭādhyāyī</w>",
    "Eight</w>",
    "chapter",
    "chapters</w>",
    "Pā",
    "Pāṇ",
    "Pāṇin",
    "Pāṇini</w>",
    "epics</w>",
    "Mahā",
    "Mahāb",
    "Mahābh",
    "Mahābhā",
    "Mahābhār",
    "Mahābhārata</w>",
    "Rā",
    "Rām",
    "Rāmāy",
    "Rāmāya",
    "Rāmāyaṇ",
    "Rāmāyaṇa</w>",
    "stor",
    "story",
    "storytel",
    "storytelling</w>",
    "registers</w>",
    "Ep",
    "Epic</w>",
    "roughly</w>",
    "contem",
    "contempor",
    "contemporary</w>",
    "taken</w>",
    "differenti",
    "differentiation</w>",
    "teach",
    "teachings</w>",
    "Mahav",
    "Mahavira</w>",
    "Bo",
    "Both</w>",
    "stres",
    "stressed</w>",
    "abj",
    "abjured</w>",
    "sac",
    "sacri",
    "sacrific",
    "sacrifices</w>",
    "Brahman",
    "Brahmanism</w>",
    "fixed</w>",
    "ethically</w>",
    "lay</w>",
    "socially</w>",
    "morally</w>",
    "Chron",
    "Chronic",
    "Chronicling</w>",
    "backdro",
    "backdrop</w>",
    "emer",
    "emergence</w>",
    "geographically</w>",
    "extensive</w>",
    "founder</w>",
    "grandson</w>",
    "26",
    "268</w>",
    "232</w>",
    "control",
    "controlled</w>",
    "arter",
    "arteries</w>",
    "except</w>",
    "deep</w>",
    "inscrip",
    "inscriptions</w>",
    "declining</w>",
    "mainstre",
    "mainstream</w>",
    "conqu",
    "conquest</w>",
    "Kaling",
    "Kalinga</w>",
    "forces</w>",
    "imm",
    "immense</w>",
    "adopting</w>",
    "dhamm",
    "dhamma</w>",
    "commis",
    "commissi",
    "commission",
    "commissioning</w>",
    "numerous</w>",
    "pill",
    "pillar</w>",
    "through",
    "throughout</w>",
    "promote</w>",
    "conduct</w>",
    "forb",
    "forbade</w>",
    "kill",
    "killing</w>",
    "wild</w>",
    "destruc",
    "destruction</w>",
    "seen</w>",
    "env",
    "envir",
    "environ",
    "environmental</w>",
    "embodi",
    "embodiment</w>",
    "ethos</w>",
    "4th</w>",
    "taxation</w>",
    "Under</w>",
    "Gupt",
    "Guptas</w>",
    "renewed</w>",
    "manag",
    "management</w>",
    "ritu",
    "ritual</w>",
    "itself</w>",
    "renewal</w>",
    "reflected</w>",
    "science</w>",
    "Sangam</w>",
    "reve",
    "reveals</w>",
    "peninsula</w>",
    "Cher",
    "Cheras</w>",
    "Cholas</w>",
    "respectively</w>",
    "Pand",
    "Pandy",
    "Pandyas</w>",
    "farther</w>",
    "Vaig",
    "Vaigai</w>",
    "sixth</w>",
    "grown</w>",
    "favour",
    "favoured</w>",
    "conserv",
    "conservative</w>",
    "transac",
    "transactional",
    "transactionalism</w>",
    "replaced</w>",
    "kingly</w>",
    "places</w>",
    "Bha",
    "Bhak",
    "Bhakti</w>",
    "traded</w>",
    "Rom",
    "Roman</w>",
    "Medieval</w>",
    "600</w>",
    "No</w>",
    "ruler</w>",
    "create</w>",
    "consist",
    "consistently</w>",
    "bey",
    "beyon",
    "beyond</w>",
    "core</w>",
    "peoples</w>",
    "accom",
    "accommo",
    "accommod",
    "accommodated</w>",
    "consequ",
    "consequently</w>",
    "differences</w>",
    "devotional</w>",
    "imit",
    "imitated</w>",
    "resur",
    "resurgence</w>",
    "royalty</w>",
    "big</w>",
    "patronised</w>",
    "capital</w>",
    "sizes</w>",
    "everywhere</w>",
    "underwent</w>",
    "8th</w>",
    "9th</w>",
    "effects</w>",
    "felt</w>",
    "La",
    "Laos</w>",
    "Br",
    "Brune",
    "Brunei</w>",
    "Cam",
    "Cambodi",
    "Cambodia</w>",
    "Viet",
    "Vietn",
    "Vietnam</w>",
    "Ph",
    "Phili",
    "Philipp",
    "Philippines</w>",
    "Malaysia</w>",
    "schol",
    "scholars</w>",
    "transmis",
    "transmission</w>",
    "initiative</w>",
    "soj",
    "sojour",
    "sojourning</w>",
    "sem",
    "semin",
    "seminaries</w>",
    "translat",
    "translating</w>",
    "nomadi",
    "nomadic</w>",
    "clans</w>",
    "swi",
    "swift</w>",
    "horse</w>",
    "caval",
    "cavalry</w>",
    "rais",
    "raising</w>",
    "ethnicity</w>",
    "establishment</w>",
    "120",
    "1206</w>",
    "forays</w>",
    "disrup",
    "disruptive</w>",
    "subject</w>",
    "custom",
    "customs</w>",
    "repul",
    "repulsing</w>",
    "Mong",
    "Mongol</w>",
    "raid",
    "raiders</w>",
    "saved</w>",
    "devastation</w>",
    "visited</w>",
    "scene</w>",
    "fle",
    "flee",
    "fleeing</w>",
    "soldi",
    "soldiers</w>",
    "lear",
    "learned</w>",
    "my",
    "mystics</w>",
    "traders</w>",
    "thereby</w>",
    "syn",
    "syncre",
    "syncretic</w>",
    "rai",
    "raiding</w>",
    "weak",
    "weakening</w>",
    "pa",
    "paved</w>",
    "Emb",
    "Embrac",
    "Embracing</w>",
    "strong</w>",
    "Shaiv",
    "Shaivite</w>",
    "upon</w>",
    "after",
    "afterwards</w>",
    "16th</w>",
    "fell</w>",
    "superi",
    "superior</w>",
    "mob",
    "mobility</w>",
    "fire",
    "firepower</w>",
    "generation</w>",
    "stam",
    "stamp</w>",
    "socie",
    "societies</w>",
    "Instead</w>",
    "balanced</w>",
    "paci",
    "pacified</w>",
    "administrative</w>",
    "inclu",
    "inclusive</w>",
    "systematic</w>",
    "central",
    "centralised</w>",
    "uniform</w>",
    "Esch",
    "Eschew",
    "Eschewing</w>",
    "identi",
    "identity</w>",
    "Mughals</w>",
    "flung</w>",
    "real",
    "realms</w>",
    "loyalty</w>",
    "expressed</w>",
    "Persi",
    "Persian",
    "Persianised</w>",
    "divine</w>",
    "deriving</w>",
    "mandating</w>",
    "pai",
    "paid</w>",
    "regulated</w>",
    "silver</w>",
    "peas",
    "peasants</w>",
    "maintained</w>",
    "patronage</w>",
    "textiles</w>",
    "Newly</w>",
    "coher",
    "coherent</w>",
    "Marathas</w>",
    "governing</w>",
    "ambi",
    "ambitions</w>",
    "collab",
    "collaboration</w>",
    "adversity</w>",
    "recogni",
    "recognition</w>",
    "exper",
    "experi",
    "experience</w>",
    "Exp",
    "Expand",
    "Expanding</w>",
    "incre",
    "incremental</w>",
    "frag",
    "fragm",
    "fragment",
    "fragmentation</w>",
    "au",
    "auth",
    "authority</w>",
    "faci",
    "facilitated</w>",
    "decent",
    "decentr",
    "decentralisation</w>",
    "enabling</w>",
    "provin",
    "provincial</w>",
    "local",
    "localised</w>",
    "auton",
    "autonomy</w>",
    "consolidate</w>",
    "enter",
    "enterpri",
    "enterprise</w>",
    "blurred</w>",
    "charter",
    "chartered</w>",
    "solidi",
    "solidified</w>",
    "outpo",
    "outposts</w>",
    "seas</w>",
    "training</w>",
    "attractive</w>",
    "elite</w>",
    "factors</w>",
    "allowing</w>",
    "gain</w>",
    "1765</w>",
    "side",
    "sideline</w>",
    "rich",
    "riches</w>",
    "size</w>",
    "army</w>",
    "enabled</w>",
    "annex",
    "annexe</w>",
    "subdue</w>",
    "1820",
    "1820s</w>",
    "exporting</w>",
    "manufactured</w>",
    "instead</w>",
    "supplying</w>",
    "raw</w>",
    "curta",
    "curtailed</w>",
    "effectively</w>",
    "arm</w>",
    "consci",
    "consciously</w>",
    "aren",
    "arenas</w>",
    "appoint",
    "appointment</w>",
    "184",
    "1848</w>",
    "Lor",
    "Lord</w>",
    "Dalhou",
    "Dalhousi",
    "Dalhousie</w>",
    "Govern",
    "Governor</w>",
    "stage</w>",
    "consolidation</w>",
    "demar",
    "demarcation</w>",
    "surve",
    "surveill",
    "surveillance</w>",
    "Tec",
    "Tech",
    "Technolog",
    "Technological</w>",
    "canals</w>",
    "tele",
    "telegra",
    "telegrap",
    "telegraph</w>",
    "introduction</w>",
    "Disaff",
    "Disaffection</w>",
    "Rebellion</w>",
    "1857</w>",
    "Fed</w>",
    "resent",
    "resentments</w>",
    "percep",
    "perceptions</w>",
    "invasive</w>",
    "harsh</w>",
    "summary</w>",
    "treat",
    "treatment</w>",
    "weal",
    "wealth",
    "wealthy</w>",
    "landown",
    "landowners</w>",
    "rocked</w>",
    "shoo",
    "shook</w>",
    "foundations</w>",
    "suppres",
    "suppressed</w>",
    "disband",
    "disbanded</w>",
    "administer</w>",
    "Proclaiming</w>",
    "gradual</w>",
    "landed</w>",
    "gent",
    "gentry</w>",
    "feud",
    "்</w>",
    "ு</w>",
    "்த",
    "்க",
    "ிய",
    "்ப",
    "ம்</w>",
    "ந்த",
    "ు</w>",
    "்ட",
    "து</w>",
    "ి</w>",
    "க்க",
    "్ర",
    "ல்</w>",
    "ப்ப",
    "ార",
    "த்த",
    "ాల",
    "்ற",
    "ும்</w>",
    "ం</w>",
    "ின",
    "ான",
    "ட்ட",
    "ా</w>",
    "ை</w>",
    "ో</w>",
    "ைய",
    "స్",
    "ரு",
    "ற்ற",
    "్య",
    "ில்</w>",
    "న</w>",
    "ாக",
    "న్",
    "்கள",
    "ంద",
    "ின்</w>",
    "இந்த",
    "ప్ర",
    "கள",
    "లో</w>",
    "ண்ட",
    "దే",
    "దేశ",
    "இந்திய",
    "ி</w>",
    "ిక",
    "ப்</w>",
    "ర్",
    "ள்",
    "లు</w>",
    "க்</w>",
    "ள்ள",
    "భార",
    "ிர",
    "భారత",
    "டு",
    "ాలు</w>",
    "மற்ற",
    "ாக</w>",
    "న్న",
    "மற்றும்</w>",
    "ంగ",
    "ில",
    "ा</w>",
    "ంది</w>",
    "கு",
    "ాయ",
    "மு",
    "ంచ",
    "்ச",
    "ాత",
    "கா",
    "క్",
    "े</w>",
    "ாவ",
    "వి",
    "ர்</w>",
    "ీ</w>",
    "ங்கள",
    "్ట",
    "ான</w>",
    "రా",
    "ானது</w>",
    "్</w>",
    "ं</w>",
    "ிற",
    "ండ",
    "ிய</w>",
    "ే</w>",
    "தி",
    "భారతదేశ",
    "ங்க",
    "ీయ",
    "ப்பட்ட",
    "స్త",
    "ன</w>",
    "ी</w>",
    "ంలో</w>",
    "ருந்த",
    "ాన",
    "த்</w>",
    "ిక</w>",
    "பெ",
    "ులు</w>",
    "ா</w>",
    "ించ",
    "र</w>",
    "ன்ற",
    "ద్",
    "தொ",
    "ీయ</w>",
    "ுக்க",
    "త్",
    "ுவ",
    "ంత",
    "ுள்ள",
    "్ల",
    "के</w>",
    "ார",
    "ిన</w>",
    "பொ",
    "గా</w>",
    "இந்தியாவ",
    "கொ",
    "కు",
    "्र",
    "வா",
    "ింది</w>",
    "ன்</w>",
    "స్థ",
    "ல்",
    "ంట",
    "ரு</w>",
    "ము",
    "ற்க",
    "त</w>",
    "ని",
    "ுகள",
    "வர",
    "రి",
    "உள்ள",
    "ాయి</w>",
    "வை</w>",
    "ల</w>",
    "ार",
    "ని</w>",
    "போ",
    "ూడ",
    "ித்த",
    "ను</w>",
    "மை",
    "్య</w>",
    "ें</w>",
    "ஆக",
    "సం",
    "ரச",
    "వా",
    "நா",
    "ంగా</w>",
    "ிக்க",
    "ిత",
    "ுள்ளது</w>",
    "में</w>",
    "து",
    "క్ష",
    "கொண்ட",
    "లో",
    "வி",
    "కు</w>",
    "நில",
    "సా",
    "।</w>",
    "இந்தியா</w>",
    "క</w>",
    "பா",
    "ది</w>",
    "ுட",
    "ూ</w>",
    "்கள்</w>",
    "్చ",
    "சம",
    "है",
    "పా",
    "ஒரு</w>",
    "తర",
    "ம்ப",
    "ారు</w>",
    "இது</w>",
    "సి",
    "ிப்ப",
    "భా",
    "ைக்</w>",
    "ుత",
    "வே",
    "ష్ట",
    "ால்</w>",
    "న్న</w>",
    "கள்</w>",
    "ప్రా",
    "ப்படு",
    "्य",
    "మై",
    "ிக",
    "తి",
    "மா",
    "కూడ",
    "ன்",
    "செ",
    "జాత",
    "பிர",
    "రాజ",
    "न</w>",
    "ஆண்ட",
    "కో",
    "ேர",
    "క్ర",
    "மைய",
    "ార్",
    "మొ",
    "क</w>",
    "ச்</w>",
    "கால",
    "తి</w>",
    "భారత</w>",
    "भार",
    "ிருந்த",
    "ట్ట",
    "திய",
    "చ్చ",
    "குற",
    "ిన",
    "தொட",
    "ను",
    "र्",
    "மே",
    "భారతదేశం</w>",
    "வெ",
    "్ర</w>",
    "ஆம்</w>",
    "హి",
    "இருந்த",
    "ఉన్న",
    "है</w>",
    "கர",
    "వ్య",
    "இத",
    "இந்தியாவின்</w>",
    "ல்ல",
    "िय",
    "ட்ச",
    "వ</w>",
    "ங்கள்</w>",
    "ల్",
    "ிவ",
    "ికి</w>",
    "ों</w>",
    "்ந்த",
    "ాల</w>",
    "ுக்கு</w>",
    "రై",
    "அமை",
    "నా",
    "த்தின்</w>",
    "ఈ</w>",
    "की</w>",
    "அரச",
    "రాష్ట",
    "ாத",
    "లి",
    "ற்ப",
    "అధ",
    "ப்பட்ட</w>",
    "और</w>",
    "పు",
    "டைய",
    "ల్ల",
    "சு",
    "ేర",
    "அதி",
    "వాత",
    "பொரு",
    "स्",
    "త</w>",
    "லை",
    "ద్ద",
    "ாள",
    "మా",
    "இந்திய</w>",
    "ద్ధ",
    "का</w>",
    "వచ్చ",
    "இர",
    "కా",
    "உல",
    "भारत</w>",
    "వర",
    "னர்</w>",
    "భారతీయ</w>",
    "மானது</w>",
    "రాష్ట్ర",
    "டி</w>",
    "प्र",
    "பு",
    "పాల",
    "ிறது</w>",
    "కొ",
    "லா",
    "జాతీయ</w>",
    "ாகும்</w>",
    "పార",
    "य</w>",
    "உரு",
    "పు</w>",
    "ுப்</w>",
    "వ్యవ",
    "பகு",
    "టి",
    "से</w>",
    "ைப்</w>",
    "ఉంది</w>",
    "ண்",
    "ఉన్నాయి</w>",
    "க்கு</w>",
    "న్</w>",
    "మార్",
    "இல்</w>",
    "ो</w>",
    "్‌",
    "டிய",
    "தெ",
    "శా",
    "்வ",
    "ణ</w>",
    "ப்படுக",
    "क्",
    "పంచ",
    "ள்</w>",
    "కే",
    "கி",
    "ின்ற",
    "ైన",
    "ने</w>",
    "ముఖ",
    "டுத்த",
    "ము</w>",
    "ந்த</w>",
    "ాబ",
    "ால",
    "ఎన్న",
    "உலக",
    "रा",
    "పె",
    "த்தில்</w>",
    "దేశం</w>",
    "நட",
    "వ్యవస్థ",
    "கோ",
    "वि",
    "కి",
    "வட",
    "హింద",
    "மாக</w>",
    "యా</w>",
    "తో</w>",
    "மிக",
    "ल</w>",
    "కాల",
    "ாட்ட",
    "చె",
    "ைகள",
    "ర్వ",
    "பர",
    "ానికి</w>",
    "ि</w>",
    "முத",
    "తం</w>",
    "று",
    "ుగ",
    "மொ",
    "ంబ",
    "सा",
    "முற",
    "ెండ",
    "ளவ",
    "లోని</w>",
    "ஆகிய",
    "త్వ",
    "ிந்த",
    "మార్గ",
    "ிட",
    "మొద",
    "ே</w>",
    "టి</w>",
    "ிகள",
    "్యం</w>",
    "ीय</w>",
    "ன்ன",
    "న్ని</w>",
    "க்கிய",
    "పర",
    "வைய",
    "ంత్ర",
    "பல",
    "मा",
    "బడ",
    "வீ",
    "కృ",
    "பார",
    "వార",
    "கூ",
    "కూడా</w>",
    "न्",
    "மக்க",
    "అధిక",
    "பெரு",
    "అధికార",
    "நீ",
    "కార",
    "म</w>",
    "ాద",
    "கார",
    "ప్రపంచ",
    "స్థాన",
    "லை</w>",
    "सं",
    "వే",
    "ளர",
    "ప్రాంత",
    "ைக்க",
    "మైన</w>",
    "செய",
    "क्ष",
    "దక్ష",
    "பொருள",
    "ుల",
    "ாதார",
    "ాన</w>",
    "சிய",
    "त्",
    "ుగా</w>",
    "தா",
    "భాష",
    "ட்ட</w>",
    "க</w>",
    "విధ",
    "ப்பு</w>",
    "్రా",
    "िक</w>",
    "ச்ச",
    "మధ",
    "பிற",
    "్మ",
    "மான</w>",
    "కర",
    "ण</w>",
    "அல்ல",
    "ప్రధ",
    "ன்ப",
    "పేర",
    "கொண்டுள்ளது</w>",
    "తర</w>",
    "உள்ளது</w>",
    "्य</w>",
    "ర్</w>",
    "ற்கு</w>",
    "ంలోని</w>",
    "விய",
    "సభ",
    "ைத்த",
    "था</w>",
    "ధిక</w>",
    "பொருளாதார",
    "రైలు</w>",
    "ர்கள",
    "ता</w>",
    "அட",
    "క్కు",
    "ப்பட",
    "వాణ",
    "ண்ண",
    "దక్షి",
    "என்ற",
    "का",
    "ంధ",
    "பெர",
    "వర్",
    "ர்கள்</w>",
    "ిన్న</w>",
    "ியல்</w>",
    "డి",
    "िया</w>",
    "ையும்</w>",
    "పరి",
    "ிகள்</w>",
    "్డ",
    "அல்லது</w>",
    "ప్",
    "ई</w>",
    "அண",
    "వి</w>",
    "சமய",
    "భారతదేశంలో</w>",
    "हैं</w>",
    "்ச்ச",
    "00",
    "ுக்</w>",
    "స్</w>",
    "நாட்ட",
    "పార్ట",
    "स</w>",
    "க்க</w>",
    "ెల",
    "ைத்</w>",
    "జనా",
    "உய",
    "राज",
    "ும",
    "జనాభ",
    "அதிகர",
    "ప్రజ",
    "நாட",
    "దేశాల",
    "को</w>",
    "டுகள",
    "భాగ",
    "ஆண்டு</w>",
    "్రం</w>",
    "குறிப்ப",
    "ాన్</w>",
    "ना",
    "வளர",
    "ుకు",
    "ున్న",
    "வற்ற",
    "రాజ్య",
    "हु",
    "ுடன்</w>",
    "చే",
    "ங்களில்</w>",
    "ఆర్",
    "பண",
    "అయ",
    "भा",
    "ாகக்</w>",
    "పేరు</w>",
    "ில்",
    "నే</w>",
    "ிருந்து</w>",
    "రెండ",
    "மை</w>",
    "व</w>",
    "ప్రభ",
    "இட",
    "இந்தியாவில்</w>",
    "ప్రభు",
    "த்தை</w>",
    "పెద్ద",
    "दे",
    "பெரும்ப",
    "ைய</w>",
    "ండి</w>",
    "வும்</w>",
    "నే",
    "ड़",
    "இல",
    "వీ",
    "ின்றன</w>",
    "టు</w>",
    "வழ",
    "పో",
    "जा",
    "వచ్చింది</w>",
    "சா",
    "మధ్య</w>",
    "தொடர",
    "రిగ",
    "द्",
    "அமைப்ப",
    "వల",
    "கட்ட",
    "ப்படுகிறது</w>",
    "గు",
    "தன",
    "పడ",
    "இரண்ட",
    "ించింది</w>",
    "ியது</w>",
    "స్కృ",
    "வாக்க",
    "ना</w>",
    "సాం",
    "படி</w>",
    "ப்பட்டது</w>",
    "రు",
    "பல</w>",
    "द</w>",
    "ுக",
    "త్య",
    "போது</w>",
    "దాయ",
    "ானவை</w>",
    "वा",
    "వె",
    "திர",
    "ఉన్న</w>",
    "இரா",
    "కేంద",
    "ாண்ட",
    "पर</w>",
    "ఒక</w>",
    "அதிகரித்த",
    "ఉత్",
    "பெற்ற",
    "దక్షిణ",
    "ுகள்</w>",
    "ति</w>",
    "శ్ర",
    "ఇండ",
    "தன்</w>",
    "గర",
    "ரிய",
    "ान</w>",
    "మత",
    "ைச்</w>",
    "్రి",
    "மூ",
    "జరిగ",
    "भारत",
    "மையான</w>",
    "చెంద",
    "ையில்</w>",
    "వంట",
    "்ந்து</w>",
    "ప్ప",
    "ित</w>",
    "பொ</w>",
    "ావర",
    "ஊ</w>",
    "ఉంట",
    "மீ",
    "తరు",
    "कर",
    "நூ",
    "తరువాత",
    "ையானது</w>",
    "లా",
    "ைவ",
    "हा",
    "మ</w>",
    "ருக்க",
    "పట్ట",
    "குடிய",
    "ిల్ల",
    "ுத்</w>",
    "पा",
    "జన",
    "மொழ",
    "ుంది</w>",
    "பாரம்ப",
    "క్</w>",
    "வெள",
    "त्र",
    "ுத",
    "్రె",
    "ஞ்ச",
    "మి",
    "முதல்</w>",
    "या</w>",
    "వాణా</w>",
    "விள",
    "మార్గాలు</w>",
    "క్రీ",
    "மக்கள்</w>",
    "ग</w>",
    "క్రీడ",
    "தே",
    "విస్త",
    "அற",
    "వై",
    "ிருந்தது</w>",
    "नि",
    "పెద్ద</w>",
    "ப்படும்</w>",
    "ిత</w>",
    "ஆகும்</w>",
    "కలి",
    "என்று</w>",
    "भारतीय</w>",
    "ఎక్కు",
    "கிழ",
    "లకు</w>",
    "பகுதிய",
    "ియా</w>",
    "கட",
    "देश",
    "పాకి",
    "ிற்க",
    "సరి",
    "உருவ",
    "ఇది</w>",
    "शा",
    "சர",
    "ళ</w>",
    "நகர",
    "ల్</w>",
    "உலகின்</w>",
    "तथा</w>",
    "కాలంలో</w>",
    "ప్రస్త",
    "தொக",
    "ప్రస్తుత",
    "சீ",
    "ए</w>",
    "ைந்த",
    "సు",
    "பகுதி",
    "ప్రధాన</w>",
    "த்த</w>",
    "పే",
    "भी</w>",
    "வல",
    "టిక",
    "நிற",
    "గో",
    "பெரிய</w>",
    "ह</w>",
    "లే",
    "ఏర్",
    "ఇతర</w>",
    "காரண",
    "्ट",
    "ఎన్నో</w>",
    "ஆய",
    "క్క",
    "நிறுவ",
    "మన",
    "ிலிருந்து</w>",
    "ై</w>",
    "தொழ",
    "మంత్ర",
    "ைகள்</w>",
    "உள்ளன</w>",
    "இந்த</w>",
    "మాత",
    "ுற",
    "రాజక",
    "बा",
    "வண",
    "పత",
    "எண்ண",
    "ణం</w>",
    "மி",
    "కాంగ",
    "हि",
    "த்திய",
    "కాంగ్రె",
    "துவ",
    "ప్రదాయ",
    "ையின்</w>",
    "कार",
    "సాధ",
    "ுள்ளன</w>",
    "கிர",
    "జనాభా</w>",
    "மான",
    "భారతదేశ</w>",
    "सम",
    "த்திற்க",
    "రంగ",
    "வடிவ",
    "రవాణా</w>",
    "வக",
    "ंग",
    "సంగ",
    "வாய",
    "ీర్",
    "ஒன்ற",
    "సామ",
    "ஆகியவை</w>",
    "एक</w>",
    "ఒక",
    "நூற்ற",
    "ముఖ్య",
    "நூற்றாண்ட",
    "డు</w>",
    "தி</w>",
    "वर्",
    "ఉప",
    "கூட்ட",
    "దార",
    "்த்த",
    "మహ",
    "ார்</w>",
    "ంగ్ల",
    "ூர",
    "భూ",
    "மிகப்</w>",
    "సరిహ",
    "ித்தான",
    "स्त",
    "సరిహద్ద",
    "ஆண்டுகள",
    "ాల్",
    "தோ",
    "గల</w>",
    "ला",
    "சமூ",
    "య</w>",
    "ுச்</w>",
    "బహ",
    "வரு",
    "दी</w>",
    "చిన్న</w>",
    "பய",
    "ాబ్",
    "தலை",
    "சிற",
    "దం</w>",
    "जि",
    "துற",
    "నుండి</w>",
    "மேற்க",
    "క్రమ",
    "விர",
    "रू",
    "ఆధ",
    "ித",
    "భి",
    "உண",
    "ద్ధి</w>",
    "प</w>",
    "கால</w>",
    "ట్",
    "பேர",
    "యో",
    "பண்ப",
    "ప్రాచ",
    "पू",
    "இண",
    "సంస్కృ",
    "இய",
    "శాస్త",
    "ட்சி</w>",
    "पर",
    "ன்ற</w>",
    "ిల్లీ</w>",
    "்க்க",
    "బె",
    "ु</w>",
    "வந்த</w>",
    "சியாவ",
    "రో",
    "வாழ",
    "మర",
    "श्",
    "இதன்</w>",
    "ించిన</w>",
    "தொடங்க",
    "ఆర్ధిక</w>",
    "அதன்</w>",
    "मि",
    "ప్రభుత్వ",
    "உயிர",
    "ుకో",
    "று</w>",
    "అత్య",
    "அளவ",
    "कर</w>",
    "పార్టీ</w>",
    "இவை</w>",
    "సిని",
    "வளர்ச்ச",
    "्या",
    "பொருட",
    "ங்களை</w>",
    "సినిమ",
    "அன",
    "సంగీ",
    "मु",
    "பெரும்பால",
    "ట్ల",
    "கீ",
    "கீழ",
    "स्थ",
    "பொதுவ",
    "మొదటి</w>",
    "கல",
    "ంతో</w>",
    "ாவது</w>",
    "सर",
    "స్వా",
    "மிக</w>",
    "కేంద్ర",
    "ிப்</w>",
    "பாரம்பரிய",
    "இருந்தது</w>",
    "ప్రాంతాలు</w>",
    "பகுதிகள",
    "अन",
    "మె",
    "பேரரச",
    "వ్యవస్థ</w>",
    "இக்க",
    "సమా",
    "முக",
    "ली</w>",
    "ాలో</w>",
    "நேர",
    "మీ",
    "்ப்ப",
    "సము",
    "ते</w>",
    "ின்றனர்</w>",
    "ిత్ర",
    "ிக்</w>",
    "రహ",
    "கண",
    "किया</w>",
    "రహదార",
    "தேர",
    "హిందూ</w>",
    "இருந்து</w>",
    "స్తాన్</w>",
    "துண",
    "कार</w>",
    "లం",
    "வர்கள",
    "గ్",
    "மு</w>",
    "సింధ",
    "तक</w>",
    "ஓர்</w>",
    "వివిధ",
    "ட</w>",
    "వివిధ</w>",
    "இராண",
    "भाष",
    "సింది</w>",
    "இராணுவ",
    "இற",
    "భాగం</w>",
    "ந்திர",
    "ించి</w>",
    "हो",
    "ாகவும்</w>",
    "బ్రి",
    "ట్</w>",
    "थ</w>",
    "ித்</w>",
    "ఇండియా</w>",
    "குறிப்பிட",
    "ాలను</w>",
    "பயன்ப",
    "స్వ",
    "लि",
    "உருவாக்க",
    "హార",
    "இடைய",
    "పూ",
    "ट</w>",
    "மய",
    "ుగు</w>",
    "இதில்</w>",
    "పేర్",
    "கோடி</w>",
    "त्र</w>",
    "ాలలో</w>",
    "மாநில",
    "ప్పటిక",
    "முன்ன",
    "లలో</w>",
    "पूर्",
    "ப்படுத்த",
    "ది",
    "தாக</w>",
    "ష్",
    "ாம",
    "इस",
    "పండ",
    "ாகப்</w>",
    "దేశంలో</w>",
    "இரு",
    "ंध",
    "తరువాత</w>",
    "வன",
    "మే",
    "ப்பட்டன</w>",
    "నది</w>",
    "ष्ट",
    "ப்த",
    "000</w>",
    "ஆன",
    "ఏర్పడ",
    "லாம்</w>",
    "ती</w>",
    "ాల్లో</w>",
    "ில்ல",
    "తిక</w>",
    "பிற</w>",
    "ार</w>",
    "ప్రముఖ",
    "ட்சிய",
    "క్య",
    "முட",
    "ுடைய</w>",
    "మొదల",
    "साथ</w>",
    "வீத",
    "గణ",
    "ுட்ப",
    "ఢిల్లీ</w>",
    "१९",
    "டு</w>",
    "భారత్</w>",
    "க்கிய</w>",
    "రాజకీయ</w>",
    "சார",
    "क्षि",
    "్యాయ",
    "இவ",
    "రాష్ట్రప",
    "அரசா",
    "जन",
    "సర",
    "அரசாங்க",
    "అత్యధిక</w>",
    "ிச",
    "కోర్",
    "ीन</w>",
    "அழ",
    "త్ర",
    "இந்தியப்</w>",
    "ప్రతి",
    "प्",
    "வங்க",
    "ల్ప",
    "உறு",
    "జాబ",
    "்ய",
    "ान",
    "మూడ",
    "மாற்ற",
    "దేశంలోని</w>",
    "ின</w>",
    "के",
    "தாக்க",
    "దేశాల</w>",
    "நடத்த",
    "బెంగ",
    "ிலான</w>",
    "ंत्र",
    "రు</w>",
    "தற்கு</w>",
    "శాఖ",
    "1ஆம்</w>",
    "సౌ",
    "देश</w>",
    "புவ",
    "సౌకర",
    "பயன்படுத்த",
    "సౌకర్య",
    "உணவ",
    "क्षे",
    "தொழில்</w>",
    "ాక",
    "டுப்ப",
    "నడి",
    "నడిప",
    "என்ப",
    "స్వామ",
    "தேச",
    "दक्षि",
    "రాష్ట్రాలు</w>",
    "ஆகியவற்ற",
    "కలిగ",
    "மர",
    "దేశాలలో</w>",
    "ँ</w>",
    "உடைய",
    "్వ",
    "ஆற்ற",
    "సముద",
    "ாத</w>",
    "कि",
    "అధిక</w>",
    "பங்க",
    "ాన్ని</w>",
    "சேர",
    "అనే",
    "சுல",
    "उत्",
    "అనేక</w>",
    "ஏற்ப",
    "చార",
    "எதிர",
    "शास",
    "ాళ",
    "முக்கிய",
    "చైన",
    "பெய",
    "ుకుంట",
    "கல்",
    "ति",
    "దీ",
    "ோ</w>",
    "సియా</w>",
    "டுக்க",
    "బహు",
    "हिन्",
    "கு</w>",
    "ాట",
    "வையாக</w>",
    "ాలతో</w>",
    "நாட்டு</w>",
    "ीं</w>",
    "శత",
    "அடிப்ப",
    "శతాబ్",
    "லில்</w>",
    "से",
    "శతాబ్దం</w>",
    "தீ",
    "వడ",
    "ண்ட</w>",
    "ப்பா",
    "టీ",
    "ष</w>",
    "செய்ய",
    "టె",
    "பாது",
    "స్వాత",
    "பாதுகா",
    "०</w>",
    "స్వాతంత్ర",
    "ஆனால்</w>",
    "జరిగిన</w>",
    "இருந்த</w>",
    "టం</w>",
    "्रे",
    "இரு</w>",
    "తంత",
    "முறை</w>",
    "తంత్ర</w>",
    "ஆக</w>",
    "दक्षिण</w>",
    "గంగా</w>",
    "பத",
    "అభి",
    "உட",
    "వృ",
    "ओं</w>",
    "ிட்ட",
    "స్య",
    "மே</w>",
    "వంటి</w>",
    "உற்ப",
    "गया</w>",
    "ళ్ల",
    "மெ",
    "வணிக",
    "భారతదేశానికి</w>",
    "बाद</w>",
    "மக்கள",
    "మొత్",
    "அனைத்த",
    "మొత్తం</w>",
    "பொருளாதார</w>",
    "ట్లు</w>",
    "रह",
    "ியானது</w>",
    "గి",
    "பாண",
    "లేద",
    "ने",
    "போட்ட",
    "ఎక్కువ",
    "விளைய",
    "ఎక్కువగా</w>",
    "தெற்க",
    "कृ",
    "ఉంటాయి</w>",
    "த்தைக்</w>",
    "ినది</w>",
    "காண",
    "అయిన</w>",
    "இந்து</w>",
    "హిందూ",
    "சமூக",
    "ைப்ப",
    "షు</w>",
    "सि",
    "கண்ட",
    "పొ",
    "ுக்குப்</w>",
    "రెండు</w>",
    "्यों</w>",
    "நாடுகள",
    "త్వ</w>",
    "பெயர",
    "మే</w>",
    "ஐஅ",
    "ज</w>",
    "చరి",
    "త్ర</w>",
    "ஐஅ</w>",
    "நுட்ப",
    "్‌</w>",
    "ढ़",
    "ప్రాచీ",
    "நிலைய",
    "ప్రాచీన</w>",
    "लो",
    "ஆயுத",
    "వత్",
    "தற்க",
    "సార",
    "ப்படுகின்றன</w>",
    "सब",
    "లతో</w>",
    "பின",
    "డి</w>",
    "ங்களின்</w>",
    "सबसे</w>",
    "ఖ్య",
    "போன்ற</w>",
    "தொடர்ந்து</w>",
    "సర్వ",
    "பிறகு</w>",
    "अध",
    "భిన్న</w>",
    "மண",
    "ప్రధాన",
    "விளையாட்ட",
    "प्रा",
    "உள்ள</w>",
    "ప్రధానమంత్ర",
    "குடியரச",
    "నిర్వ",
    "கிழக்க",
    "यह</w>",
    "ான்",
    "నిర్వహ",
    "ந்து</w>",
    "అతి",
    "च</w>",
    "வேறு",
    "కారం</w>",
    "ரீ",
    "రాష్ట్రపతి</w>",
    "ரீதிய",
    "ब</w>",
    "పద్ధ",
    "அரசியல்</w>",
    "மொத்த</w>",
    "చే</w>",
    "यु",
    "இக்கால",
    "చేయ",
    "ிலும்</w>",
    "సభ</w>",
    "டித்த",
    "కాంగ్రెస",
    "நிர",
    "పార్టీ",
    "பிரித்தான",
    "मुख",
    "அதிகரித்து</w>",
    "200",
    "அதிக",
    "వాతావర",
    "தர",
    "बहु",
    "వాతావరణం</w>",
    "தாகும்</w>",
    "భాషలు</w>",
    "இடையில்</w>",
    "మలు</w>",
    "राज्य</w>",
    "ப்பின",
    "சோ",
    "కల",
    "கீழ்</w>",
    "జాబిత",
    "कि</w>",
    "சட்ட",
    "ప్రస్తుతం</w>",
    "அடிப்படைய",
    "వే</w>",
    "जिस",
    "வங்காள",
    "மன",
    "పట్టణ",
    "இந்தியத்</w>",
    "నగర",
    "पु",
    "வர்கள்</w>",
    "బాద",
    "்ந்த</w>",
    "ప్రపంచ</w>",
    "வது</w>",
    "रूप</w>",
    "தார",
    "టు",
    "கொண்டிருந்தது</w>",
    "తమి",
    "या",
    "கூட</w>",
    "రక",
    "நடு",
    "రైల్",
    "ழு",
    "ंग्रे",
    "க்கா",
    "సై",
    "பண்பாட்ட",
    "రోడ",
    "तर</w>",
    "ஒப்ப",
    "రహదారులు</w>",
    "நிறுவன",
    "ாண்",
    "బెంగాల",
    "द्ध",
    "வருக",
    "దిన",
    "குழ",
    "Indi",
    "री</w>",
    "மூன்ற",
    "ருத்த",
    "ப்பட்டுள்ளது</w>",
    "अप",
    "வரலா",
    "India",
    "உள்ளட",
    "India</w>",
    "ंड",
    "கரு",
    "பெற்றது</w>",
    "వెబ",
    "பெரும்பாலான</w>",
    "పై",
    "धर्",
    "திய</w>",
    "పైగా</w>",
    "மாற",
    "స్థానంలో</w>",
    "स्व",
    "சந்த",
    "అతి</w>",
    "காங்க",
    "ాస్వామ",
    "காங்கிர",
    "िया",
    "ాస్వామ్య</w>",
    "காங்கிரச",
    "కేంద్రపాల",
    "சரா",
    "కేంద్రపాలిత</w>",
    "बंध",
    "அண்</w>",
    "కలిగి</w>",
    "கொண்ட</w>",
    "ఖ్య</w>",
    "லும்</w>",
    "द्व",
    "ముఖ్యమైన</w>",
    "பல்",
    "ీర",
    "ரோ",
    "्रा",
    "ఖండ",
    "ற்போ",
    "ந்",
    "ములో</w>",
    "ல்கள",
    "ిజ",
    "श</w>",
    "மொழிகள",
    "మాల",
    "ரிய</w>",
    "యాలు</w>",
    "नी</w>",
    "ுகளை</w>",
    "దక్షిణాన</w>",
    "பரவல",
    "పశ",
    "பஞ்ச",
    "राष्ट",
    "పశ్చ",
    "முகலா",
    "పశ్చి",
    "முகலாய",
    "रि",
    "న్మ",
    "வைத்த",
    "ఆఫ",
    "ேற்ற",
    "நேரத்தில்</w>",
    "ద్వీ",
    "र्थ",
    "உருவானது</w>",
    "ద్వీప",
    "என</w>",
    "పుట్ట",
    "सरकार</w>",
    "ாளும",
    "సంఘ",
    "சில",
    "ుల</w>",
    "आध",
    "காட்ட",
    "ౌర",
    "வு</w>",
    "த</w>",
    "विश्",
    "సామ్రా",
    "ுமே</w>",
    "సామ్రాజ",
    "தம",
    "म्",
    "ాలుగా</w>",
    "தொலை",
    "బ్రిటి",
    "ுப்ப",
    "आ</w>",
    "பக",
    "ష్</w>",
    "திப்ப",
    "నీ</w>",
    "ியாக</w>",
    "ल्",
    "ీన",
    "முறைய",
    "యు",
    "த்தியில்</w>",
    "గా",
    "ता",
    "வரை</w>",
    "నాయ",
    "ில்லை</w>",
    "త్వా",
    "ियों</w>",
    "உள்",
    "ఆధార",
    "உள்நாட்டு</w>",
    "தேர்த",
    "थी</w>",
    "கூட்டண",
    "நவீ",
    "ఆర్థ",
    "प्त</w>",
    "நவீன</w>",
    "ఆర్థిక</w>",
    "ாவில்</w>",
    "అను",
    "साम",
    "இப்ப",
    "వేగంగా</w>",
    "ைகளில்</w>",
    "అభివృ",
    "ுள்</w>",
    "कु",
    "అభివృద్ధి</w>",
    "டுக",
    "ாகத்</w>",
    "క్షరా",
    "பௌ",
    "క్షరాస్య",
    "ட்டு</w>",
    "క్షరాస్యత</w>",
    "जो</w>",
    "பெண",
    "ళ్లను</w>",
    "டைந்த",
    "నాల",
    "கட்டட",
    "भाषा",
    "சன",
    "టిలో</w>",
    "குறிப்பிடத்த",
    "ఇవ",
    "४</w>",
    "உலக</w>",
    "ప్పటికీ</w>",
    "செல",
    "మత</w>",
    "பண்ட",
    "बड़",
    "స్తారు</w>",
    "ஸ்</w>",
    "கிழக்கு</w>",
    "ఉత్తర</w>",
    "चु",
    "ஆகிய</w>",
    "ంటే</w>",
    "என",
    "కను",
    "रा</w>",
    "வளர்ச்சி</w>",
    "రత",
    "த்திர",
    "విశ",
    "हुआ</w>",
    "எண்ணிக்க",
    "మిత",
    "வேள",
    "இரண்டு</w>",
    "మేన",
    "शासन</w>",
    "ர்த்த",
    "ియ",
    "மிழ",
    "రూ",
    "अनु",
    "வழி</w>",
    "పొంద",
    "புதிய</w>",
    "ले</w>",
    "చరిత్ర</w>",
    "இவ்",
    "ோர்</w>",
    "మాన",
    "பே",
    "निर्",
    "వు",
    "ுமதிய",
    "సంవత్",
    "வி</w>",
    "ज़",
    "పూ</w>",
    "பொதுவாக</w>",
    "వారస",
    "வெற்ற",
    "न्त",
    "ప్రముఖ</w>",
    "உறுப்பின",
    "ுக்கும்</w>",
    "తుల",
    "विश्व</w>",
    "வையாகும்</w>",
    "శాస్త్రం</w>",
    "குறைவ",
    "అయిన",
    "गा",
    "ில்லிய",
    "బా",
    "கணக்க",
    "భారతదేశంలోని</w>",
    "ான்</w>",
    "पूर्व</w>",
    "அமைந்த",
    "త్త",
    "மனித",
    "चीन</w>",
    "த்திற்கு</w>",
    "కూడిన</w>",
    "வந்த",
    "भू",
    "తన</w>",
    "வேறுப",
    "நீண்ட</w>",
    "లక్ష",
    "சிந்த",
    "द्र",
    "ణంగా</w>",
    "மேற்கு</w>",
    "స్తా",
    "தோன்ற",
    "दि",
    "தற்போ",
    "లోను</w>",
    "த்தால்</w>",
    "ద్య",
    "हुई</w>",
    "தொடங்கியது</w>",
    "సభ్య",
    "தொடக்க</w>",
    "ప్రభుత్వం</w>",
    "ித்தது</w>",
    "ला</w>",
    "கடற்க",
    "ప్రకారం</w>",
    "கடற்கர",
    "న్యాయ",
    "राष्ट्र",
    "நீடித்த",
    "మల",
    "விரிவ",
    "அறிய",
    "ोड़",
    "రాష్ట్రాల</w>",
    "పద",
    "பெரும்பான்",
    "द्र</w>",
    "మైనది</w>",
    "நாடாளும",
    "ోర",
    "ையுடைய</w>",
    "क्षेत्र</w>",
    "வேக",
    "కార్య",
    "போத",
    "నిర్",
    "அணு</w>",
    "हिन्दी</w>",
    "మించ",
    "ற்று</w>",
    "நான",
    "వర్గ",
    "जाता</w>",
    "உயிரின",
    "భారతదేశపు</w>",
    "நாட்டின்</w>",
    "అని</w>",
    "५</w>",
    "என்ற</w>",
    "కోర్ట",
    "சொ",
    "ியல",
    "సూ",
    "मंत्र",
    "புர",
    "వహ",
    "பொருட்கள",
    "नाम</w>",
    "కాంగ్రెసు</w>",
    "வைக்க",
    "கொண்டு</w>",
    "పక్ష",
    "चि",
    "வெளிய",
    "మాత్రం</w>",
    "பெரும்</w>",
    "ంచి</w>",
    "ாலும்</w>",
    "स्कृ",
    "కుల",
    "அனைத்து</w>",
    "வகு",
    "సంప్రదాయ",
    "समय</w>",
    "ுற</w>",
    "ఉండ",
    "தமிழ",
    "दिया</w>",
    "పాకిస్థ",
    "த்தது</w>",
    "కల్ప",
    "மல",
    "पार",
    "ாந்த",
    "కొన్ని</w>",
    "ண்டும்</w>",
    "నాలు</w>",
    "திக்க",
    "सी</w>",
    "మ్మ",
    "இருந்தன</w>",
    "பிரிவ",
    "జాబితా</w>",
    "मान</w>",
    "மதிப்ப",
    "పాత",
    "செயல",
    "పాత్ర</w>",
    "கிராம",
    "పరిశ్ర",
    "்ப்</w>",
    "इस</w>",
    "மலை",
    "ించే</w>",
    "டை</w>",
    "మూడు</w>",
    "முதன்",
    "देशों</w>",
    "ముంబ",
    "முதன்மையான</w>",
    "ஐ</w>",
    "బాద్</w>",
    "विध",
    "ிகளை</w>",
    "ీలు</w>",
    "வென்ற",
    "२</w>",
    "ఉన్నారు</w>",
    "డ</w>",
    "ில்லியன்</w>",
    "महा",
    "பொருட்கள்</w>",
    "కుటు",
    "ஆண",
    "धर्म</w>",
    "ூர்வ",
    "కుటుంబ",
    "இதுவ",
    "இதுவாகும்</w>",
    "ాలకు</w>",
    "व्य",
    "சூ",
    "తమిళ",
    "ள்க",
    "दो",
    "சே",
    "‌</w>",
    "பட",
    "రకాల</w>",
    "बढ़",
    "ிண",
    "స్లా",
    "ஐரோ",
    "வடக்கு</w>",
    "సర్వీ",
    "வில",
    "పాద",
    "்பற்ற",
    "कें",
    "கங்க",
    "శాఖ</w>",
    "தென்ன",
    "పాక్</w>",
    "ले",
    "தென்னிந்த",
    "నడిపించ",
    "த்து</w>",
    "நடு</w>",
    "నె",
    "ष्",
    "முசுல",
    "పరంగా</w>",
    "முசுலி",
    "सार</w>",
    "இயக்க",
    "రోడ్డ",
    "கல்விய",
    "సాంప్రదాయ",
    "बी",
    "வரும்</w>",
    "చి",
    "குறிப்பிடத்தக்க</w>",
    "நான்க",
    "సంగీతం</w>",
    "राज्यों</w>",
    "டுகள்</w>",
    "చెందిన</w>",
    "பழ",
    "एश",
    "குறிப்பாக</w>",
    "సినిమా</w>",
    "இருப்ப",
    "బెంగాలీ</w>",
    "स्तान</w>",
    "வேளாண்",
    "పతక",
    "மாக்க",
    "द्ध</w>",
    "உயர்</w>",
    "సాధించ",
    "இவ்வா",
    "దినాలు</w>",
    "ியப்</w>",
    "काल</w>",
    "ஏற்ற",
    "N</w>",
    "ருவ",
    "टि",
    "అధికారిక</w>",
    "அக",
    "ాతో</w>",
    "மேற்ப",
    "लिए</w>",
    "தேசிய</w>",
    "காங்கிரசு</w>",
    "కి</w>",
    "प्रमुख",
    "ுள்ள</w>",
    "அவை</w>",
    "ప్రజాస్వామ్య</w>",
    "திரு",
    "प्रमुख</w>",
    "పాలన</w>",
    "ிகளில்</w>",
    "సైన",
    "ஐக்கிய</w>",
    "संघ",
    "ఒకటి",
    "1இல்</w>",
    "ఒకటిగా</w>",
    "2011ஆம்</w>",
    "अन्य</w>",
    "తిగా</w>",
    "ia",
    "టర్",
    "वर्ष</w>",
    "ఉపఖండ",
    "அதிகார",
    "இந்தியக்</w>",
    "ుకొ",
    "ளவு</w>",
    "చారిత్ర",
    "कर्",
    "தென்</w>",
    "వాణిజ",
    "பாக்க",
    "ులను</w>",
    "सेना</w>",
    "பாக்கித்தான",
    "ఉత్త",
    "பூ",
    "ఉత్తరా",
    "தொடக்க",
    "क्र",
    "హిమాల",
    "வகை",
    "இரண்டாவது</w>",
    "మహా",
    "हीं</w>",
    "முன்",
    "సముద్రం</w>",
    "முன்னர்</w>",
    "మాన</w>",
    "धान",
    "டியாக</w>",
    "బంగ",
    "ியான</w>",
    "పాకిస్తాన్</w>",
    "ுக்குள்</w>",
    "सद",
    "బంగ్ల",
    "னம்</w>",
    "செய்த",
    "బంగ్లా",
    "ोग</w>",
    "இசு",
    "బంగ్లాదేశ",
    "ுதல்</w>",
    "నేపాల",
    "பஞ்சா",
    "ఆఫ్",
    "ீட்ட",
    "ఆఫ్ఘ",
    "கட்டடக்</w>",
    "उप",
    "శ్రీ",
    "கலை</w>",
    "వులు</w>",
    "ஆட்சிய",
    "उत्तर</w>",
    "தில்</w>",
    "నాగర",
    "7இல்</w>",
    "నాగరిక",
    "ாவின்</w>",
    "लय</w>",
    "ైన</w>",
    "மைப்ப",
    "జన్మ",
    "நாய",
    "हो</w>",
    "భాషా</w>",
    "நிர்வ",
    "బహుళ</w>",
    "தனி</w>",
    "नी",
    "பர்</w>",
    "వైవిధ",
    "ைகளின்</w>",
    "పాటు</w>",
    "உடைய</w>",
    "समा",
    "నలో</w>",
    "பெற",
    "దు",
    "அரசியல",
    "बना",
    "యింది</w>",
    "பகுதி</w>",
    "కం",
    "த்துவ",
    "दो</w>",
    "కంపె",
    "எஞ்ச",
    "நகர்ப்ப",
    "కింద",
    "பட்ட",
    "रु",
    "నేర",
    "தங்கள",
    "ాత్మ",
    "ாளர்கள்</w>",
    "जी",
    "గాంధ",
    "க்கி</w>",
    "గాంధీ</w>",
    "துக்க",
    "सै",
    "స్వతంత్ర</w>",
    "இலக்கிய",
    "லம்</w>",
    "जी</w>",
    "ினர்</w>",
    "దేశంగా</w>",
    "மத்தியில்</w>",
    "కె",
    "பிராந்த",
    "लिय",
    "కరణ",
    "ுகளில்</w>",
    "ున్న</w>",
    "ல்கள்</w>",
    "ब्",
    "రిక",
    "ிக்கும்</w>",
    "పం</w>",
    "ூர்</w>",
    "्या</w>",
    "நு",
    "పూర్వ",
    "ஓவிய",
    "నాలుగు</w>",
    "पश्",
    "ேய",
    "పేర్లు</w>",
    "தசா",
    "వచ్చు</w>",
    "தசாப்த",
    "पश्चि",
    "వీటిలో</w>",
    "அவ",
    "జంబ",
    "த்திய</w>",
    "र्व",
    "இலட்ச",
    "జంబూ</w>",
    "0கள",
    "బడిన</w>",
    "संस्कृ",
    "ியியல்</w>",
    "లేదా</w>",
    "ையை</w>",
    "ె</w>",
    "तिक</w>",
    "வெப்ப",
    "భరత",
    "ுகிறது</w>",
    "ैद",
    "రాజు</w>",
    "இருக்க",
    "మీద",
    "பா</w>",
    "शु",
    "பொது",
    "మార",
    "4இல்</w>",
    "తరువాతి</w>",
    "करने</w>",
    "பிரதம",
    "హిందూదేశం</w>",
    "நீதி",
    "ర్ష",
    "ஆண்டின்</w>",
    "वों</w>",
    "కులు</w>",
    "கணக்கெ",
    "ుతో</w>",
    "ங்கில",
    "dia",
    "లిచ",
    "అనే</w>",
    "अधि",
    "dia</w>",
    "గుర్",
    "தெற்கா",
    "చిత్ర",
    "இதற்க",
    "ोड़</w>",
    "ளம்</w>",
    "మొట్ట",
    "வேறுபட்ட</w>",
    "मे",
    "మొట్టమొదటి</w>",
    "ఏర్పడ్డ",
    "குதிய",
    "द्य",
    "ஆண்டில்</w>",
    "సమ",
    "வாக்கில்</w>",
    "ిక్</w>",
    "தற்போது</w>",
    "क्षा</w>",
    "దక్షిణ</w>",
    "நிலை</w>",
    "సంస్కృతి</w>",
    "அமைப்பு</w>",
    "रहा</w>",
    "அடிப்படையாகக்</w>",
    "దే</w>",
    "ுகளின்</w>",
    "క్రీ</w>",
    "உருவா",
    "मान",
    "సాంస్కృ",
    "தெற்கு</w>",
    "ஆசியாவ",
    "సాంస్కృతిక</w>",
    "ही</w>",
    "விட்ட",
    "లు",
    "்தான",
    "చేసింది</w>",
    "च्",
    "இணைய",
    "బడింది</w>",
    "இந்தியாவை</w>",
    "5ஆம்</w>",
    "పాలించ",
    "क्त</w>",
    "டியான</w>",
    "కళ",
    "0ஆம்</w>",
    "२०",
    "మొదలైన",
    "இன",
    "நபர்</w>",
    "సహ",
    "ிவு</w>",
    "दश",
    "ుకున్న",
    "வேகமாக</w>",
    "మధ్య",
    "ர</w>",
    "अंग्रे",
    "ర్చ",
    "ினர",
    "டைய</w>",
    "ఇంగ్ల",
    "பால",
    "పా</w>",
    "சமூக</w>",
    "వ్యా",
    "நான்கு</w>",
    "पाकि",
    "கொண்டுள்ளன</w>",
    "వ్యాపార",
    "ஆதர",
    "లంప",
    "पाकिस्तान</w>",
    "பாரம்பரிய</w>",
    "ఆక్రమ",
    "வட</w>",
    "इसके</w>",
    "పై</w>",
    "பிரபல",
    "சாத",
    "వరి</w>",
    "हुए</w>",
    "அமைப்பானது</w>",
    "ాక</w>",
    "மயமாக்க",
    "విభిన్న</w>",
    "தங்களது</w>",
    "मध",
    "లను</w>",
    "்ம",
    "ைக்கு</w>",
    "ప్రధానమంత్రి</w>",
    "व्यव",
    "சிற்ப",
    "ంగం</w>",
    "ர்களால்</w>",
    "स्वत",
    "దేశానికి</w>",
    "வில்லை</w>",
    "சில</w>",
    "కారణంగా</w>",
    "सू",
    "ப்படுவ",
    "ద్ధం</w>",
    "மைக்க",
    "రాజ్యా",
    "மீண்டும்</w>",
    "లె",
    "புற",
    "ிருந்த</w>",
    "ిస్",
    "अनुसार</w>",
    "ங்கும்</w>",
    "ద్వార",
    "வற்றின்</w>",
    "पह",
    "ద్వారా</w>",
    "ாய",
    "பாதுகாப்ப",
    "ుతుంది</w>",
    "कई</w>",
    "தாங்க",
    "ేజ",
    "ுகளும்</w>",
    "సంవత్సర",
    "இமய",
    "ँच",
    "బడత",
    "தொடர்ச்ச",
    "వాహ",
    "होता</w>",
    "குறைவான</w>",
    "క్‌",
    "கட்ச",
    "जाति</w>",
    "సంఖ్య",
    "மேற்பட்ட</w>",
    "ுடன",
    "సంక",
    "ारा</w>",
    "సంకీర్",
    "ருப்ப",
    "బడ్డ",
    "ஜ</w>",
    "नहीं</w>",
    "ిగా</w>",
    "ெடுக்க",
    "ఉంటుంది</w>",
    "कारण</w>",
    "உற",
    "వ్యవస్థలో</w>",
    "இடத்த",
    "वा</w>",
    "ంటారు</w>",
    "ிசி</w>",
    "உள்ளிட்ட",
    "కోర్టులు</w>",
    "अधिक</w>",
    "உள்ளிட்டவை</w>",
    "హై",
    "கணக்கெடுப்ப",
    "సూచ",
    "்களுக்கு</w>",
    "सैन",
    "ఇవి</w>",
    "போட்டிகள்</w>",
    "India</w>",
    "కేంద్ర</w>",
    "चुना",
    "என்பது</w>",
    "వడం</w>",
    "பரப்ப",
    "गण",
    "அர",
    "దాద",
    "குட",
    "దాదా",
    "சீன",
    "सा</w>",
    "ళ్",
    "மிய",
    "ுகளானவை</w>",
    "ధి",
    "भाषा</w>",
    "கொள்க",
    "తా</w>",
    "ஆண்டுகளுக்கு</w>",
    "வாழ்வ",
    "गु",
    "త్వాన్ని</w>",
    "சிந்து</w>",
    "కోల్",
    "ைந்த</w>",
    "साम्रा",
    "உருவாக",
    "సార్",
    "கவன",
    "ఎన్నిక",
    "साम्राज",
    "சை",
    "மையை</w>",
    "కాగా</w>",
    "தென்னிந்திய",
    "स्था",
    "ల్లో</w>",
    "பண்பா",
    "యం</w>",
    "முசுலிம்</w>",
    "रे</w>",
    "தில்ல",
    "ెలు",
    "தில்லி</w>",
    "భౌ",
    "८</w>",
    "சுல்தான",
    "சுல்தானக",
    "పేర్కొ",
    "நூற்றாண்டில்</w>",
    "करोड़</w>",
    "ున్నాయి</w>",
    "ளவில்</w>",
    "கிழக்கிந்த",
    "నుంచి</w>",
    "मी",
    "8இல்</w>",
    "మతాలు</w>",
    "குடு",
    "குடும்ப",
    "సంప్రదాయాలు</w>",
    "முக்கியமான</w>",
    "పీ",
    "சுத",
    "ियाँ</w>",
    "పీఠ",
    "வருமான",
    "கல்வியற",
    "ష్ణ</w>",
    "देख",
    "3ஆம்</w>",
    "దేశపు</w>",
    "பல்வே",
    "मो",
    "ీత",
    "பல்வேறு</w>",
    "కాశ",
    "இச",
    "माण</w>",
    "உலகள",
    "కాశ్మ",
    "உலகளாவ",
    "శాస్త్ర",
    "உலகளாவிய</w>",
    "శాస్త్రీయ</w>",
    "தன்",
    "போதிலும்</w>",
    "७</w>",
    "తక్కు",
    "ஆசிய",
    "పరిశ్రమలు</w>",
    "குறிக்க",
    "ारी</w>",
    "ஆற",
    "సినిమాలు</w>",
    "மைப்பு</w>",
    "పట్టణాలు</w>",
    "भाषाओं</w>",
    "நூற்றாண்டின்</w>",
    "முழ",
    "మంది</w>",
    "காலத்தில்</w>",
    "संविध",
    "ர்களின்</w>",
    "சுமா",
    "ముఖ్య</w>",
    "संविधान</w>",
    "சுமார்</w>",
    "నగరాలు</w>",
    "விவ",
    "मंत्री</w>",
    "వెను",
    "உற்பத்த",
    "ளி",
    "వెనుక",
    "कॉ",
    "వెనుకటి</w>",
    "காலத்தின்</w>",
    "தை</w>",
    "పురు",
    "न्या",
    "மேல்</w>",
    "உள்ளடக்கிய",
    "த்தைச்</w>",
    "एशिया</w>",
    "పురుష",
    "ங்களானவை</w>",
    "జనగణ",
    "முன்னேற்ற",
    "ख्या</w>",
    "நெ",
    "பிந்த",
    "लग",
    "ువ",
    "வர்</w>",
    "ఇతర",
    "ங்களாக</w>",
    "सम्",
    "பின்பற்ற",
    "సంబ",
    "வே</w>",
    "ू</w>",
    "సంబంధ",
    "ிருக்க",
    "கட்டுப்ப",
    "కార్యక్రమ",
    "वे",
    "கட்டுப்பாட்ட",
    "జరు",
    "பொது</w>",
    "ரால்</w>",
    "జరుపు",
    "मैद",
    "ியை</w>",
    "జరుపుకు",
    "புது",
    "ब्र",
    "வ்வ",
    "పండుగ",
    "அந்",
    "పండుగలు</w>",
    "ெடுத்த",
    "లీ</w>",
    "சிய</w>",
    "व्यवस्",
    "வலி",
    "స్థానం</w>",
    "நடை",
    "హిందీ</w>",
    "व्यवस्था</w>",
    "சுவ",
    "வு",
    "తెల",
    "ஆர",
    "षों</w>",
    "తెలుగు</w>",
    "நிலையில்</w>",
    "ஈர",
    "కన్న",
    "ுக்கான</w>",
    "తమిళం</w>",
    "கல்வி</w>",
    "केंद्र</w>",
    "சி</w>",
    "ూరు</w>",
    "தொகை</w>",
    "తంలో</w>",
    "री",
    "ந்தி</w>",
    "ప్రార",
    "அதிகரித்தது</w>",
    "तर",
    "ாற்ற",
    "ప్రారం",
    "ைப்பு</w>",
    "ప్రారంభ",
    "பங்கள",
    "सभ",
    "செயல்ப",
    "రైల్వే</w>",
    "சமீ",
    "बीच</w>",
    "ఇస్లా",
    "சமீப",
    "சது",
    "ఇస్లామా",
    "नों</w>",
    "வெப்ப</w>",
    "ఇస్లామాబాద్</w>",
    "ல</w>",
    "क्षेत्र",
    "పాకిస్థాన్</w>",
    "க்கும்</w>",
    "கிராமப்ப",
    "దక్షిణా",
    "यू",
    "దక్షిణాసియా</w>",
    "சேர்ந்த",
    "பொதுத்</w>",
    "संबंध",
    "సర్వీస",
    "ஆண்டுகளில்</w>",
    "సర్వీసులు</w>",
    "தேர்ந்த",
    "६</w>",
    "நி",
    "ాలనే</w>",
    "அமெ",
    "द्वारा</w>",
    "ప్రతిపాద",
    "அமெர",
    "அமெரிக்க",
    "ప్రతిపాదన",
    "ार्",
    "பில்லியன்</w>",
    "రైళ్లను</w>",
    "ிலேய",
    "राष्ट्रीय</w>",
    "ంప",
    "ிலேயே</w>",
    "యా",
    "திற",
    "ंग्रेस</w>",
    "ల్ల</w>",
    "இருக்கலாம்</w>",
    "மாமி",
    "१</w>",
    "ున్నారు</w>",
    "உலகக்</w>",
    "రోడ్డు</w>",
    "ப்பை</w>",
    "दशक</w>",
    "ஆங்கில",
    "కేవల",
    "பெருங்க",
    "కేవలం</w>",
    "पार्ट",
    "நே",
    "எல்ல",
    "జాలు</w>",
    "ைகளை</w>",
    "गठ",
    "பகிர",
    "చాల",
    "அரு",
    "చాలా</w>",
    "चुनावों</w>",
    "அருக",
    "ஆப்ப",
    "విద్య",
    "ஆப்பிர",
    "फ</w>",
    "ஆப்பிரிக்க",
    "భావిస్త",
    "அதிக</w>",
    "కథ",
    "फ़",
    "மரப",
    "காரணமாக</w>",
    "డు",
    "ாகர",
    "ஆயிர",
    "భారతీయ",
    "ஐரோப்ப",
    "ण्",
    "ఆహార",
    "வழக்க",
    "பரவிய",
    "క్రీడలు</w>",
    "द्वी",
    "பகுதிகளில்</w>",
    "పతకాలు</w>",
    "உருவாக்கிய",
    "இராச்ச",
    "संख्या</w>",
    "టై",
    "இராச்சிய",
    "ிழ",
    "ాడ",
    "को",
    "இசுலா",
    "లి</w>",
    "பகுதியில்</w>",
    "्री",
    "முகலாயப்</w>",
    "క్యాల",
    "பேரரசு</w>",
    "பிரித்தானிய",
    "मा</w>",
    "క్యాలెండ",
    "கிழக்கிந்திய</w>",
    "క్యాలెండర్</w>",
    "இறைய",
    "एव",
    "பிரித்தானிய</w>",
    "శెల",
    "ஆக்க",
    "ंगा</w>",
    "அரசு</w>",
    "/</w>",
    "சுதந்திர",
    "IS",
    "பிரிக்க",
    "उन",
    "பெரும",
    "ISB",
    "பெருமளவ",
    "विस्त",
    "கழ",
    "ISBN</w>",
    "கல்வியறிவு</w>",
    "धी",
    "on</w>",
    "கிட்ட",
    "வளரும்</w>",
    "रो",
    "வல்</w>",
    "வர்க்க",
    "వెబ్‌",
    "அளவுக்கு</w>",
    "भाज",
    "ாம்</w>",
    "ண்டிய",
    "क्ति</w>",
    "ியின்</w>",
    "ஸ்த",
    "துணைக்</w>",
    "వెబ్‌సై",
    "ால</w>",
    "பின்",
    "शि",
    "వెబ్‌సైటు</w>",
    "ங்களுக்கு</w>",
    "కోట్ల",
    "ற்ப</w>",
    "इन</w>",
    "கடு",
    "జనాభాతో</w>",
    "வரைய",
    "ప్రపంచంలో</w>",
    "लों</w>",
    "த்துடன்</w>",
    "మీ</w>",
    "தொடர்ப",
    "విస్తీర్",
    "வரலாற்ற",
    "प्राचीन</w>",
    "ాయుత",
    "புல",
    "ాయుత</w>",
    "ெய",
    "ती",
    "పార్ల",
    "கின்றனர்</w>",
    "ோர",
    "बहुत</w>",
    "పార్లమె",
    "எண்ணிக்கைய",
    "పార్లమెంట",
    "பிந்தைய</w>",
    "வெளி</w>",
    "సమాఖ్య</w>",
    "प्रदेश</w>",
    "ஜன",
    "ఎక్కువ</w>",
    "காரணமானது</w>",
    "సైనిక</w>",
    "निर्माण</w>",
    "தவிர",
    "సామర్",
    "லின்</w>",
    "సామర్థ",
    "ढ़</w>",
    "ங்களும்</w>",
    "సామర్థ్యం</w>",
    "தூர",
    "అణ",
    "மக்களின்</w>",
    "त्व</w>",
    "ప్రాంతీయ</w>",
    "தீபக",
    "శక్",
    "வகுத்தது</w>",
    "पड़",
    "సియ",
    "மும்</w>",
    "ஆகியவற்றை</w>",
    "సియాలో</w>",
    "नेत",
    "அந்நேரத்தில்</w>",
    "వేల</w>",
    "நோ",
    "కిలో",
    "नेतृ",
    "ிக்கு</w>",
    "కిలోమీ",
    "ித்த</w>",
    "కిలోమీటర్",
    "எந்த</w>",
    "सैन्य</w>",
    "కిలోమీటర్లకు</w>",
    "ாளர",
    "సముద్ర",
    "வோ</w>",
    "प्रधान",
    "సముద్రత",
    "இவ்வாறு</w>",
    "సముద్రతీర",
    "ுவத",
    "భాగాన్ని</w>",
    "आर्थ",
    "விளைவ",
    "ஏற்பட்ட</w>",
    "కూడుకొ",
    "வீன",
    "చారిత్రక</w>",
    "आर्थिक</w>",
    "காலத்திற்க",
    "వాణిజ్య</w>",
    "16",
    "ఉత్తరాన</w>",
    "रे",
    "அடைய",
    "మహాసముద్రం</w>",
    "ப்பர",
    "పశ్చిమాన</w>",
    "लोक",
    "அரசின்</w>",
    "అర",
    "வணிக</w>",
    "తూ",
    "ஆதிக்க",
    "कॉंग्रेस</w>",
    "తూర్",
    "5இல்</w>",
    "ాతం</w>",
    "சீர",
    "योग</w>",
    "లుగా</w>",
    "எனின",
    "எனினும்</w>",
    "చైనా</w>",
    "गणराज्य</w>",
    "துறை</w>",
    "ార్</w>",
    "இலட்சம்</w>",
    "నేపాల్</w>",
    "पश्चिम</w>",
    "தலைவர",
    "భూట",
    "0களின்</w>",
    "భూటాన్</w>",
    "ஸ்ட",
    "अर",
    "ోంది</w>",
    "ையாக</w>",
    "దేశాలు</w>",
    "சமீபத்திய</w>",
    "मी</w>",
    "లోయ</w>",
    "மற",
    "పుట్టి",
    "பரி",
    "चार</w>",
    "బౌ",
    "மருந்த",
    "உண்ண",
    "బౌద్ధ",
    "स्थाप",
    "நாடாளுமன்ற",
    "సిక",
    "கட்சிய",
    "సిక్",
    "साम्राज्य</w>",
    "தலைமை</w>",
    "జాతి</w>",
    "குறுக",
    "23</w>",
    "वीं</w>",
    "தேர்தலில்</w>",
    "ఏప్ర",
    "தேர்ந்தெடுக்க",
    "ఏప్రి",
    "रू</w>",
    "மூன்றாவது</w>",
    "ఏప్రిల్</w>",
    "அரசியலமைப்ப",
    "చైనాన",
    "लन</w>",
    "உச்ச",
    "చైనాను</w>",
    "நடுவண",
    "நடுவண்</w>",
    "न्ह",
    "దాట",
    "அமைச்ச",
    "మౌర",
    "நீதிம",
    "गी",
    "మౌర్య</w>",
    "வருகிறது</w>",
    "పలు</w>",
    "இறக்க",
    "రాజ్యాలుగా</w>",
    "துறையானது</w>",
    "పోయింది</w>",
    "அறிக்க",
    "शे",
    "బ్రిటిష్</w>",
    "தொகைக்</w>",
    "ఈస్",
    "வேலை",
    "भूमि",
    "ఈస్ట్</w>",
    "திருமண",
    "కంపెనీ</w>",
    "ையல்</w>",
    "परमा",
    "சமைக்க",
    "బ్రిటీ",
    "மாமிச",
    "పరిపాలన</w>",
    "परमाण",
    "மிட",
    "కిందకు</w>",
    "வங்காள</w>",
    "19</w>",
    "பாக்கித்தான்</w>",
    "परमाणु</w>",
    "డ్</w>",
    "பகிர்ந்து</w>",
    "அமைந்துள்ளது</w>",
    "మ్</w>",
    "त्य",
    "துணைக்க",
    "మహాత్మ",
    "துணைக்கண்ட",
    "మహాత్మా</w>",
    "குறைந்த",
    "मिल</w>",
    "నాయక",
    "ித்து</w>",
    "மனித</w>",
    "స్వాతంత్ర్యం</w>",
    "अव",
    "பல்வகை",
    "సం</w>",
    "மையில்</w>",
    "తర్",
    "அடுத்த",
    "णा",
    "ளி</w>",
    "తర్వాత",
    "கிரு",
    "భవి",
    "जा</w>",
    "இந்",
    "భవించ",
    "சமயப்</w>",
    "సంస్",
    "ப்பட்டு</w>",
    "जाती</w>",
    "பௌத்த",
    "సంస్కరణ",
    "அறிவ",
    "दा",
    "చెందుత",
    "ஒன்றிண",
    "చెందుతున్న</w>",
    "தியாக</w>",
    "प्रधानमंत्री</w>",
    "ைக்கப்பட்ட</w>",
    "ఒకటి</w>",
    "நடுக்</w>",
    "నీ",
    "தென",
    "९</w>",
    "కాహార",
    "தென்க",
    "కాహార</w>",
    "தென்கிழ",
    "ील</w>",
    "தம்</w>",
    "ున్నది</w>",
    "மீது</w>",
    "చెప్",
    "இறு",
    "ड</w>",
    "చెప్పు",
    "தாக்கம்</w>",
    "6இல்</w>",
    "చెప్పుకో",
    "बर</w>",
    "ஒப்பீட்ட",
    "మొదటి",
    "ஏற்படுத்த",
    "వేద",
    "ம்ச",
    "न्याया",
    "ార్థ",
    "்களை</w>",
    "இடம்</w>",
    "ఉపయో",
    "प्रति",
    "சனநாய",
    "ఉపయోగి",
    "நாடாக</w>",
    "మేర",
    "लर</w>",
    "தக",
    "శై",
    "நடுத்த",
    "ప్రదేశ",
    "जनजाति</w>",
    "நடுத்தர</w>",
    "గోద",
    "வர்க்கத்த",
    "గోదావర",
    "ிக்கப்பட்ட</w>",
    "द्वीप</w>",
    "வறு",
    "నేరే",
    "குழந்த",
    "నేరేడు</w>",
    "अरब</w>",
    "எதிர்</w>",
    "పండు</w>",
    "ங்கு</w>",
    "पूर्ण</w>",
    "కనుక</w>",
    "போர",
    "వచ్చిన</w>",
    "हिन्द",
    "9ஆம்</w>",
    "వర్ష",
    "பாரசீ",
    "మీదగా</w>",
    "மாக",
    "जै",
    "ாண",
    "ుడు</w>",
    "நன்ற",
    "తను</w>",
    "अन्त",
    "பயன்படுத்தப்படுகிறது</w>",
    "శకు",
    "பூர்வ",
    "शता",
    "సింధూ",
    "பூர்வீ",
    "காலப்</w>",
    "నులు</w>",
    "शताब्",
    "கருத",
    "గ్ర",
    "எஞ்சிய</w>",
    "నద",
    "பின்னர்</w>",
    "शताब्दी</w>",
    "சி",
    "వల</w>",
    "ுகின்றன</w>",
    "రూపా",
    "ख</w>",
    "நகர்ப்புற",
    "రూపాంత",
    "பண்பாடு</w>",
    "धीरे</w>",
    "రూపాంతర",
    "சுற்ற",
    "இக்காலத்தின்</w>",
    "వారి</w>",
    "ब्रि",
    "கங்கைச்</w>",
    "వలన</w>",
    "அவர்கள",
    "ప్రస్తుతము</w>",
    "சாதி</w>",
    "गई</w>",
    "பீ",
    "ప్రభుత్వ</w>",
    "மேலும்</w>",
    "పొందిన</w>",
    "दर</w>",
    "வேளாண்மை</w>",
    "అవి</w>",
    "நெருக்க",
    "ोष",
    "ంక",
    "வளர்ந்து</w>",
    "சமய</w>",
    "శి",
    "परं",
    "த்துக்கு</w>",
    "ఏర్పడ్డాయి</w>",
    "தவிர்த்த",
    "స్థావర",
    "ுப",
    "वं",
    "ரீதியாக</w>",
    "స్థావరాలు</w>",
    "பௌத்த</w>",
    "పశ్చిమ</w>",
    "पहले</w>",
    "ஆள",
    "గర్</w>",
    "தந்த",
    "बो",
    "ప్రాంతాల్లో</w>",
    "சமயம்</w>",
    "4ஆம்</w>",
    "సింధు",
    "जिसमें</w>",
    "ாமல்</w>",
    "నాగరికత</w>",
    "மூலம்</w>",
    "చెందాయి</w>",
    "பிரதி",
    "टी</w>",
    "ங்களைப்</w>",
    "ఇదే</w>",
    "ர்",
    "రాజ్యాలు</w>",
    "निक</w>",
    "மேற்கொ",
    "సామ్రాజ్యం</w>",
    "பின்</w>",
    "छ</w>",
    "వారసత్వ",
    "7ஆம்</w>",
    "ுமதி</w>",
    "విలు",
    "च्च</w>",
    "கலை",
    "శో",
    "வலிமையான</w>",
    "వర్ణ</w>",
    "நிலப்பர",
    "ణించ",
    "நிலப்பரப்ப",
    "முடிவ",
    "పల్ల",
    "वी</w>",
    "இராணுவ</w>",
    "పాండ",
    "ங்களைக்</w>",
    "शन</w>",
    "మొదలగు",
    "கைய",
    "ிந்தது</w>",
    "పాలించారు</w>",
    "क्षेत्रीय</w>",
    "அதிகப்ப",
    "విజ",
    "அதிகப்படியான</w>",
    "కళలు</w>",
    "வள",
    "ओर</w>",
    "సారస్వ",
    "ரி",
    "தய",
    "సారస్వతం</w>",
    "सह",
    "அடங்கும்</w>",
    "సాంకే",
    "ட்டது</w>",
    "विका",
    "సాంకేతిక</w>",
    "சார்ந்த</w>",
    "வற்றில்</w>",
    "మొదలైనవి</w>",
    "नेतृत्व</w>",
    "ிர்</w>",
    "రెండవ</w>",
    "உற்பத்திய",
    "సహస",
    "இன்ற",
    "३</w>",
    "సహస్ర",
    "கக்</w>",
    "புவியியல்</w>",
    "సహస్రాబ్",
    "रक्षा</w>",
    "தட்ட",
    "తు",
    "திச",
    "हाला",
    "కుల</w>",
    "குசரா",
    "ரி</w>",
    "దండ",
    "भाई</w>",
    "வாட்ட",
    "యాత",
    "பாற",
    "యాత్ర",
    "யும்</w>",
    "लिये</w>",
    "ానులు</w>",
    "வால்</w>",
    "கத",
    "మొగ",
    "प्राप्त</w>",
    "அகண",
    "అయినా</w>",
    "உம்</w>",
    "निर",
    "ముఖ్యంగా</w>",
    "மட்ட",
    "அடர்த்த",
    "ఐరో",
    "पे",
    "மோ",
    "ఐరోపా</w>",
    "ாட்டு</w>",
    "ఇక్క",
    "பிற்ப",
    "१९९",
    "స్థిత",
    "மந்திர",
    "பி</w>",
    "స్థితి</w>",
    "सरकार",
    "ாட்சி</w>",
    "గమన",
    "சட்ட</w>",
    "బ్రిటిషు</w>",
    "बहुम",
    "அன்ற",
    "குடியரசுத்</w>",
    "7లో</w>",
    "वर्षों</w>",
    "ாளர்</w>",
    "ர்களைக்</w>",
    "ியம்</w>",
    "आधि",
    "తిర",
    "உறவு</w>",
    "ஏவ",
    "తిరుగ",
    "स्थित</w>",
    "ஏவுக",
    "తిరుగు",
    "ஏவுகண",
    "गो",
    "తిరుగుబా",
    "முந்த",
    "తిరుగుబాటు</w>",
    "ஆற்றல்</w>",
    "जनसंख्या</w>",
    "சராசர",
    "స్వాతంత్ర్య</w>",
    "சராசரி</w>",
    "गर</w>",
    "సమర",
    "இடத்தையும்</w>",
    "సమరం</w>",
    "20</w>",
    "इंड",
    "ாட",
    "త్వంలో</w>",
    "எண்ணெய",
    "एवं</w>",
    "ఫల",
    "திப்</w>",
    "1950</w>",
    "ஏற்றுமதிய",
    "थे</w>",
    "జనవరి</w>",
    "கோட",
    "வய",
    "26న</w>",
    "म्भ",
    "தான",
    "గణతంత్ర</w>",
    "பரவலாக</w>",
    "राजनी",
    "రాజ్యంగా</w>",
    "பள்ள",
    "பாணியானது</w>",
    "జాతులు</w>",
    "गंगा</w>",
    "வேலைப்பா",
    "ర్షణ",
    "நாட்டுப்ப",
    "मौ",
    "చవి",
    "தொலைக்கா",
    "చూ",
    "தொலைக்காட்சி</w>",
    "समाज</w>",
    "சமையல்</w>",
    "లౌ",
    "கிண்ண",
    "లౌక",
    "मध्य",
    "வென்றுள்ளது</w>",
    "లౌకిక</w>",
    "கோப்பை</w>",
    "ः</w>",
    "தெற்காசியாவ",
    "లక్షణ",
    "ப்பூர்வ",
    "కాపా",
    "विज",
    "அழைக்க",
    "కాపాడ",
    "्र</w>",
    "కాపాడుకుంట",
    "ஏழ",
    "தெற்கே</w>",
    "అప్ప",
    "संस्कृति</w>",
    "பெருங்கட",
    "ఇంద",
    "மேற்கே</w>",
    "கிழக்கே</w>",
    "ब्रिटि",
    "ిర",
    "மர்</w>",
    "జె",
    "நில</w>",
    "ब्रिटिश</w>",
    "த்தீ",
    "సీ</w>",
    "அந்த",
    "మాత్ర",
    "அந்தமான",
    "प्रभा",
    "அந்தமான்</w>",
    "మాత్రమే</w>",
    "தீவ",
    "न्हें</w>",
    "వాదం</w>",
    "தாய",
    "ரே</w>",
    "స్తాన్",
    "ोग",
    "தொடக்கத்தில்</w>",
    "வர்களாக</w>",
    "भूमिका</w>",
    "ుర",
    "ஆக்கிய",
    "ாவுக்கு</w>",
    "పరీ",
    "दि</w>",
    "படிப்ப",
    "పరీక్ష",
    "நாகர",
    "நாகரிக",
    "నిర్వహించింది</w>",
    "मन",
    "ஐரோப்பிய</w>",
    "8లో</w>",
    "சமசு",
    "टे</w>",
    "சமசுகிரு",
    "మరో</w>",
    "இல்ல",
    "దు</w>",
    "வடமேற்க",
    "स्वतंत्र",
    "பரவியது</w>",
    "రాజకీయ",
    "காணப்படுகிறது</w>",
    "स्वतंत्रता</w>",
    "అవ",
    "பதி",
    "பௌத்தம்</w>",
    "రాజ్యాంగం</w>",
    "लगभ",
    "வழிய",
    "అధికారం</w>",
    "குப்த",
    "பரவலான</w>",
    "लगभग</w>",
    "నిర్వహణ</w>",
    "மொழி</w>",
    "சேர்ந்த</w>",
    "వుతుంది</w>",
    "ची",
    "இறுதியாக</w>",
    "పదవి</w>",
    "இசுலாம",
    "நாடுகளின்</w>",
    "ప్రాయ",
    "एँ</w>",
    "ழுத்த",
    "తిలో</w>",
    "உருவாக்கியது</w>",
    "मिल",
    "ஒப்பீட்டளவில்</w>",
    "ఎల",
    "சென்ற",
    "ఎలక్",
    "விரிவடைந்த",
    "हर",
    "ுக்காக</w>",
    "ఎలక్ట",
    "றாக</w>",
    "अपने</w>",
    "ఎలక్టోర",
    "பெரும்பான்மைய",
    "ఎలక్టోరల్</w>",
    "पा</w>",
    "நாடாளுமன்ற</w>",
    "కాలేజ",
    "திகழ",
    "2022",
    "हाँ</w>",
    "ఎన్నుకో",
    "்ந்தது</w>",
    "ఎన్నుకోబడత",
    "व्या",
    "இதே</w>",
    "ఎన్నుకోబడతారు</w>",
    "36</w>",
    "கிட்டத்த",
    "లోక్‌",
    "स्थान</w>",
    "கிட்டத்தட்ட</w>",
    "సభ్యులు</w>",
    "ியுள்ளது</w>",
    "कुछ</w>",
    "திட்ட",
    "ఎన్నుకుంట",
    "ைப்பட",
    "నియ",
    "ங்களையும்</w>",
    "दोनों</w>",
    "கொள்ள",
    "నియమించ",
    "மாகும்</w>",
    "दर्",
    "మంత్రి",
    "காடுகள்</w>",
    "பாரம்பரியமாக</w>",
    "స్వీ",
    "कह",
    "சொல்ல",
    "ిస్తారు</w>",
    "மாகத்</w>",
    "ையான</w>",
    "శాస",
    "संबंध</w>",
    "பண்டைக்</w>",
    "శాసన</w>",
    "இந்தியர்கள",
    "कों</w>",
    "19ஆம்</w>",
    "పద్ధతి</w>",
    "ఎగు",
    "सु",
    "பூர்வீக",
    "సభను</w>",
    "முக்கியத்துவ",
    "पी",
    "பெற்றுள்ளது</w>",
    "రాజ్య</w>",
    "உண்",
    "లోక్</w>",
    "அவர்கள்</w>",
    "सक",
    "அறியப்பட்ட</w>",
    "ప్రజలు</w>",
    "விலங்க",
    "युक्त</w>",
    "ప్రత్య",
    "நிலையான</w>",
    "சாய",
    "సుప్ర",
    "पै",
    "வளர்ச்சிய",
    "సుప్రీ",
    "ழிப்ப",
    "சுற்றி</w>",
    "సుప్రీం</w>",
    "टे",
    "பகுதிகள்</w>",
    "కోర్టు</w>",
    "இயற்ற",
    "सदस",
    "்வு</w>",
    "ులకు</w>",
    "கருது",
    "నలు</w>",
    "போர்</w>",
    "प्ले",
    "வீர",
    "సె",
    "ஒதுக்க",
    "बंधन</w>",
    "ారి</w>",
    "தக்கா",
    "தக்காண",
    "ంగ</w>",
    "ுகளாக</w>",
    "साल</w>",
    "மகா",
    "జో",
    "எடுத்த",
    "कार्य",
    "వ్యవస్థకు</w>",
    "ரின்</w>",
    "தூர</w>",
    "అతిపెద్ద</w>",
    "िय</w>",
    "்வை</w>",
    "పక్షం</w>",
    "ப்படுகின்றனர்</w>",
    "சங்க",
    "దాదాపు</w>",
    "सभा</w>",
    "திப்படுத்த",
    "ళ్ళ",
    "நிர்வாக",
    "कुल</w>",
    "நிலையை</w>",
    "செவ்வ",
    "జనతా</w>",
    "செவ்வியல்</w>",
    "आधिकार",
    "வான",
    "సును</w>",
    "காலமானது</w>",
    "आधिकारिक</w>",
    "ప్రభుత్వాన్ని</w>",
    "பிராந்திய</w>",
    "பண்பாட்டு</w>",
    "ఇటీ",
    "ज़ी</w>",
    "நோக்கி</w>",
    "పోత",
    "முய",
    "बड़ा</w>",
    "முயற",
    "సార్వ",
    "முயற்ச",
    "जब",
    "டிக்க",
    "ருக்குப்</w>",
    "సార్వత్ర",
    "்தி</w>",
    "लं",
    "முழுவத",
    "సార్వత్రిక</w>",
    "முழுவதும்</w>",
    "हिमा",
    "కలిస",
    "பெற்ற</w>",
    "தால்</w>",
    "కలిసి</w>",
    "ईसा</w>",
    "8ஆம்</w>",
    "వాద",
    "பரந்த</w>",
    "इसी</w>",
    "ப்படுவதற்கு</w>",
    "న్నీ</w>",
    "ருக்கு</w>",
    "रहे</w>",
    "ఎన్నికల్లో</w>",
    "பெரும்பாலும்</w>",
    "ிந்த</w>",
    "प्रार",
    "தான</w>",
    "కాంగ్రెస్</w>",
    "தீபகற்ப</w>",
    "प्रारम्भ",
    "நன்றாக</w>",
    "స్థానాలను</w>",
    "வடிவங்கள்</w>",
    "గెలు",
    "முடிந்தது</w>",
    "णी</w>",
    "அதிகரித்த</w>",
    "గెలుచ",
    "ுவதற்கு</w>",
    "लिया</w>",
    "இதற்கு</w>",
    "గెలుచుకో",
    "நிய",
    "पं",
    "గెలుచుకోవడం</w>",
    "மிகக்</w>",
    "சீர்த",
    "భౌగో",
    "बद",
    "சீர்தி",
    "భౌగోళ",
    "சீர்திருத்த",
    "अपनी</w>",
    "ம்",
    "భౌగోళిక</w>",
    "ல்வாய",
    "కులాలు</w>",
    "दोलन</w>",
    "அவற்றின்</w>",
    "ியும்</w>",
    "ుట",
    "ளர்ச்ச",
    "ध</w>",
    "ఏక",
    "ைகளால்</w>",
    "தள",
    "सूच",
    "గుర్త",
    "அரசாங்கம்</w>",
    "ఈశ",
    "இதைத்</w>",
    "ாடுகள",
    "ఈశాన",
    "இந்தியர்கள்</w>",
    "क्ष</w>",
    "ఈశాన్య</w>",
    "நுகர",
    "சேவைய",
    "హిమాలయ</w>",
    "शेष</w>",
    "த்து",
    "ிப்பு</w>",
    "పర్వ",
    "गत</w>",
    "கட்டு",
    "కూడుకు",
    "அமைத்தது</w>",
    "நல",
    "वर्त",
    "కూడుకుని</w>",
    "பாதிக்க",
    "భారతం</w>",
    "தனித்த",
    "ेक</w>",
    "தனித்துவ",
    "వంత",
    "புவித்</w>",
    "मह",
    "కూడి</w>",
    "பகுதியாக</w>",
    "ஊட",
    "ఎడ",
    "आधु",
    "ாகச்</w>",
    "పూర్",
    "தொடர்கள",
    "आधुनिक</w>",
    "பாலை",
    "పూర్తిగా</w>",
    "பாலைவன",
    "పీఠభూ",
    "करना</w>",
    "மிகவும்</w>",
    "ோட்ட",
    "కనుమలు</w>",
    "ட்ச</w>",
    "नव",
    "హ్మ",
    "ரே",
    "மலை</w>",
    "ली",
    "పుత",
    "துணை</w>",
    "காடுகள",
    "శీత",
    "प्रकार</w>",
    "ூட்ட",
    "నెల",
    "விட</w>",
    "ग्र",
    "மிக்க",
    "నెలకొ",
    "மண்ட",
    "వనాలు</w>",
    "दा</w>",
    "அகணிய</w>",
    "மாகக்</w>",
    "జమ్మ",
    "त्य</w>",
    "జమ్మూ</w>",
    "ப்படலாம்</w>",
    "न्तु</w>",
    "சிறப்ப",
    "కాశ్మీ",
    "தல",
    "సంఖ్య</w>",
    "பன்ன",
    "अल",
    "பன்னாட்டு</w>",
    "లేదు</w>",
    "பாதுகாப்புச்</w>",
    "अलग</w>",
    "ానీ</w>",
    "ப்பட்டுள்ளன</w>",
    "கூட்டணி</w>",
    "త్రి</w>",
    "जिन",
    "குறுகிய</w>",
    "చూడ",
    "பிரதம</w>",
    "चा",
    "மகள",
    "చూడండి</w>",
    "இவர்</w>",
    "ये</w>",
    "பெரும்பான்மை</w>",
    "ఆధారపడ",
    "ஒற்ற",
    "ఆధారపడిన</w>",
    "ंड</w>",
    "பி",
    "ஐந்த",
    "దేశ</w>",
    "ஐந்து</w>",
    "निय",
    "ూల",
    "ிறார்</w>",
    "கூட்டாட்சி</w>",
    "ాదాయ",
    "शासित</w>",
    "பிற்பகுதிய",
    "ాదాయంలో</w>",
    "பிற்பகுதியில்</w>",
    "शां",
    "அமைச்சர",
    "కంటే</w>",
    "நீதிமன்ற",
    "जाते</w>",
    "ట్ర",
    "ண்டை</w>",
    "ట్రో",
    "डॉ",
    "ஆயுத</w>",
    "ళి</w>",
    "பாதுகாப்பு</w>",
    "हालाँ",
    "ண்டு</w>",
    "మై</w>",
    "ஒப்பந்த",
    "గత</w>",
    "்ர",
    "हालाँकि</w>",
    "செலவீன",
    "ప్రపంచంలోని</w>",
    "பணிய",
    "घोष",
    "2003</w>",
    "ுத்த",
    "णा</w>",
    "12",
    "லிருந்து</w>",
    "கணக்கெடுப்பின்</w>",
    "ధి</w>",
    "युद्ध</w>",
    "టా</w>",
    "மட",
    "संयुक्त</w>",
    "திறன",
    "విదేశ",
    "சென்ன",
    "విదేశీ</w>",
    "वाय",
    "சென்னை</w>",
    "வாக",
    "జాతీయ",
    "ஆண்களுக்கு</w>",
    "प्लेट</w>",
    "మైన",
    "ஆகவும்</w>",
    "स्ट",
    "అమె",
    "கால்</w>",
    "అమెరిక",
    "नद",
    "நடனம்</w>",
    "అమెరికా</w>",
    "அணிய",
    "ఇ</w>",
    "ஆண்கள்</w>",
    "சமைக்கப்பட்ட</w>",
    "సామా",
    "अप्र",
    "தொடுக",
    "தொடுகற",
    "సామాజ",
    "पार्टी</w>",
    "ஐச",
    "సామాజిక</w>",
    "ஐசிசி</w>",
    "भाजपा</w>",
    "போட்டிகளில்</w>",
    "స్తాయి</w>",
    "இணையத்த",
    "ముంబై</w>",
    "ஆங்கிலம்</w>",
    "२००",
    "அதிகாரப்பூர்வ",
    "కోల్‌",
    "குடியரசு</w>",
    "गठबंधन</w>",
    "அடிப்படையில்</w>",
    "కోల్‌క",
    "விரி",
    "சூழ",
    "కోల్‌కాత",
    "बने</w>",
    "வடக்க",
    "சீனா</w>",
    "కోల్‌కాతా</w>",
    "த்தீவ",
    "नाग",
    "சியாவுடன்</w>",
    "చెన్న",
    "மனிதர்கள்</w>",
    "केन्",
    "ஆப்பிரிக்காவில்</w>",
    "చెన్నై</w>",
    "வடிவங்களில்</w>",
    "ద్రా",
    "இவர்கள்</w>",
    "निभाई</w>",
    "அடுத்து</w>",
    "హైద",
    "படிப்படியாக</w>",
    "மாகப்</w>",
    "हथ",
    "హైదరా",
    "உருவாகியது</w>",
    "இந்தியாவுக்குள்</w>",
    "83</w>",
    "்களில்</w>",
    "అక్షరాస్యత</w>",
    "பாட",
    "हथिय",
    "ல்களில்</w>",
    "మహి",
    "டம்</w>",
    "திராவ",
    "अमे",
    "మహిళ",
    "திராவிட",
    "திராவிட</w>",
    "స్త్ర",
    "ைகளானவை</w>",
    "अमेरि",
    "மௌ",
    "ण्ड",
    "கங்கை</w>",
    "స్త్రీలు</w>",
    "ஒட்டு</w>",
    "பங்கு</w>",
    "జనగణన</w>",
    "दृ",
    "தென்னிந்தியாவில்</w>",
    "கிற",
    "ముస్",
    "अफ",
    "கிறித்த",
    "நகரப்</w>",
    "ముస్లి",
    "सी",
    "பேரரசானது</w>",
    "ముస్లిం</w>",
    "பஞ்சாப்</w>",
    "சீக்கிய",
    "हिमालय</w>",
    "స్తులు</w>",
    "ரீதியான</w>",
    "வைத்தது</w>",
    "पर्व",
    "కార్యక్రమాలు</w>",
    "குடியேற்ற",
    "பொருளாதாரமாக</w>",
    "భక్",
    "அத",
    "ड़ी</w>",
    "இறையாண்",
    "సాహ",
    "இறையாண்மைய",
    "संस्कृत</w>",
    "செய்தது</w>",
    "జరుపుకుంటారు</w>",
    "தலை</w>",
    "ैली</w>",
    "అంద",
    "வருமானமானது</w>",
    "இலிருந்து</w>",
    "न्न</w>",
    "ృత",
    "₹1</w>",
    "உயர",
    "పావ",
    "करण</w>",
    "வற",
    "భాషలను</w>",
    "बे",
    "ికంగా</w>",
    "தகவல்</w>",
    "विस्तृ",
    "தொழில்",
    "అధికార</w>",
    "தொழில்நுட்ப",
    "विस्तृत</w>",
    "வர்க்கத்தினர",
    "ఇంగ్లీ",
    "அமைப்பை</w>",
    "ानों</w>",
    "ఇంగ్లీషు</w>",
    "இசை</w>",
    "பண்பாட்டில்</w>",
    "సౌకర్యాలు</w>",
    "பொருளாதாரச்</w>",
    "लीन</w>",
    "ற்ற</w>",
    "సౌకర్యాలలో</w>",
    "குறைத்த",
    "चल",
    "உயிரினப்</w>",
    "తిని</w>",
    "சக",
    "தன்மைய",
    "अर्थ",
    "నిడి",
    "காரணம்</w>",
    "தற்குக்</w>",
    "शुरू</w>",
    "నిడివి",
    "குறிக்கப்</w>",
    "கிரே",
    "జిత",
    "वादी</w>",
    "ிந்து",
    "சியப்</w>",
    "ఢాక",
    "சமசுகிருத</w>",
    "आं",
    "உட்க",
    "ఢాకా</w>",
    "குறிப்பிட்ட",
    "बन</w>",
    "ிலுமே</w>",
    "లాహ",
    "रख",
    "வரலாற்று</w>",
    "లాహో",
    "பரத",
    "த்தைப்</w>",
    "బంగ్లాదేశ్‌",
    "உள்ளடக்கிய</w>",
    "கருதப்படுகிறது</w>",
    "లోనే</w>",
    "वाद</w>",
    "அடைந்த",
    "ప్రారంభించ",
    "ிருந்தனர்</w>",
    "परा",
    "ைப்படுத்த",
    "ప్రతిపాదనకు</w>",
    "விவசாய",
    "वरी</w>",
    "దేశాలను</w>",
    "செழிப்ப",
    "ங்களைச்</w>",
    "गए</w>",
    "రైల్వే",
    "அளவு</w>",
    "கைவ",
    "ర్‌",
    "बड़े</w>",
    "கைவின",
    "வணிகம்</w>",
    "కూ</w>",
    "கடுமைய",
    "सो",
    "பழமையான</w>",
    "ించుకో",
    "நூல்கள",
    "मों</w>",
    "சமவெளிய",
    "వచ్చని</w>",
    "வரலாற்றாளர்கள்</w>",
    "ிடுக",
    "तिहा",
    "నిపు",
    "ர்வ",
    "கருதுகின்றனர்</w>",
    "నిపుణ",
    "्यता</w>",
    "கித",
    "தூ",
    "నిపుణులు</w>",
    "हरी</w>",
    "முத்திர",
    "இக்கால</w>",
    "సూచించ",
    "ின்",
    "நெருக்கமான</w>",
    "సూచించిన",
    "தட",
    "भि",
    "సూచించినట్లు</w>",
    "6ஆம்</w>",
    "சிறிய</w>",
    "ికలు</w>",
    "युग</w>",
    "ஆட்சி</w>",
    "சாராத</w>",
    "వల్ల</w>",
    "புத்த",
    "आग",
    "தவிர்த்து</w>",
    "ప్రయో",
    "அமைந்தது</w>",
    "वर्ग</w>",
    "நகர்ப்புற</w>",
    "ప్రయోజన",
    "செல்",
    "अं",
    "காலத்திற்கு</w>",
    "మనదేశం</w>",
    "மக",
    "ப்பட்டிருந்தது</w>",
    "स्त्र</w>",
    "వెల్ల",
    "முன",
    "இராணுவத்</w>",
    "తె",
    "परि",
    "த்தைத்</w>",
    "உறுதிப்படுத்த",
    "మేనని</w>",
    "பெண்கள்</w>",
    "००</w>",
    "இரண்டாம்</w>",
    "తే",
    "நிலைக்க",
    "कारी</w>",
    "வரி</w>",
    "నిర్మించ",
    "புதுப்ப",
    "विकास</w>",
    "மருத்த",
    "్లో",
    "மருத்துவ",
    "நீடித்திருந்தது</w>",
    "ఉండటం</w>",
    "बड़ी</w>",
    "ஆட்ச",
    "ఒకే",
    "வங்காளத்தின்</w>",
    "भाग</w>",
    "ப்பட்டனர்</w>",
    "రాష్ట్ర</w>",
    "இன்ன",
    "रिक</w>",
    "இன்னும்</w>",
    "గ్రా",
    "குடும்பங்கள்</w>",
    "எண்ணிக்கையிலான</w>",
    "हर</w>",
    "మిస్త",
    "மற்று",
    "மற்றுமொ",
    "अंग्रेजी</w>",
    "వాయ",
    "மற்றுமொரு</w>",
    "ஏற்றுமதி</w>",
    "వాయు</w>",
    "गांध",
    "ணை</w>",
    "சியா</w>",
    "జరిగే</w>",
    "அறி",
    "गांधी</w>",
    "ஞர்கள்</w>",
    "ప్పటికిన",
    "பங்கெடுத்த",
    "वल</w>",
    "ஆசிய</w>",
    "ప్పటికినీ</w>",
    "ஊடு",
    "முதலில்</w>",
    "१९७",
    "అంత",
    "குடி",
    "ஆகியோர்</w>",
    "అంతర్",
    "संघ</w>",
    "மீதான</w>",
    "சைவ",
    "అంతర్జాతీయ</w>",
    "जिसके</w>",
    "இதற்குப்</w>",
    "உள்ளூர்</w>",
    "జల</w>",
    "அள",
    "सश",
    "తక్కువ</w>",
    "அடையாள",
    "வேண்ட",
    "जल",
    "ముడి</w>",
    "முகலாய</w>",
    "வெள்ள",
    "ఖని",
    "वायु</w>",
    "நுழ",
    "புத்திர",
    "ఖనిజాలు</w>",
    "காரம்</w>",
    "मैदान</w>",
    "ஆரம்ப",
    "మతి</w>",
    "இடையிலான</w>",
    "ऊँच",
    "நிறுவனம்</w>",
    "విష",
    "உள்ளி",
    "पहा",
    "உள்ளிட்ட</w>",
    "విషయాలు</w>",
    "முன்னே",
    "முக்கியமான",
    "र्वो",
    "ప్రపంచములో</w>",
    "உரி",
    "వలస",
    "होती</w>",
    "போல்</w>",
    "தயார",
    "వలస</w>",
    "கம்</w>",
    "१९८",
    "பொருளாதாரம்</w>",
    "తా",
    "ுக்குத்</w>",
    "संस",
    "பாணிய",
    "సమాజ",
    "சார்ந்த",
    "संसद</w>",
    "வாய்ப்ப",
    "తులతో</w>",
    "நுகர்வ",
    "భావిస్తారు</w>",
    "சேவையாற்ற",
    "बहुमत</w>",
    "ஒத்து",
    "కుటుంబ</w>",
    "ஒத்துழ",
    "पालि",
    "ாட்ட</w>",
    "సాంప్రదాయిక</w>",
    "காந்தி</w>",
    "पालिका</w>",
    "பதவிய",
    "పవి",
    "நகர்ப்</w>",
    "மாவ",
    "राज्य",
    "కర్",
    "ட்</w>",
    "ாகவே</w>",
    "ాటక</w>",
    "लावा</w>",
    "அப்ப",
    "அப்போ",
    "ప్రజాద",
    "बै",
    "அப்போது</w>",
    "தட்டானது</w>",
    "ప్రజాదర",
    "டெ",
    "अम",
    "ஐரோவா",
    "ప్రజాదరణ</w>",
    "இமயமல",
    "डॉलर</w>",
    "ல்லி</w>",
    "ఇవిక",
    "மலைத்</w>",
    "தார்ப்</w>",
    "विदेश",
    "డిస్",
    "குசராத்தின்</w>",
    "தொடர்ச்சி</w>",
    "సాల",
    "विदेशी</w>",
    "பாறை</w>",
    "ஆண்டுகளுக்கும்</w>",
    "ప్రసి",
    "एं</w>",
    "நீள",
    "ప్రసిద్ధి</w>",
    "कर्ज</w>",
    "రచ",
    "கில",
    "अंग्रेज़ी</w>",
    "రచయ",
    "கிலோ",
    "கிலோமீ",
    "दृष्ट",
    "సాధించిన</w>",
    "கிலோமீட்ட",
    "கிலோமீட்டர்கள்</w>",
    "जबकि</w>",
    "డైన</w>",
    "கடற்கரைகள்</w>",
    "खा",
    "నాథ",
    "ம்ம",
    "கலக்க",
    "అన్న",
    "हिन्दू</w>",
    "நிலையானது</w>",
    "காற்ற",
    "మలయ",
    "होते</w>",
    "மண்டல</w>",
    "பாலூட்ட",
    "మలయాళ",
    "राजनीतिक</w>",
    "நீர்</w>",
    "மட்டுமே</w>",
    "మలయాళం</w>",
    "भरा</w>",
    "நிலப்பரப்பில்</w>",
    "மறைப்பு</w>",
    "కన్నడ</w>",
    "मध्य</w>",
    "ஆக்கிர",
    "ஆக்கிரம",
    "ణి",
    "तरी</w>",
    "முள்ள",
    "முள்ள</w>",
    "ప్రజల</w>",
    "तः</w>",
    "ப்படுவத",
    "ఆహారం</w>",
    "கிராமப்புற</w>",
    "स्थापना</w>",
    "ுடனான</w>",
    "వైవిధ్య",
    "ிந்து</w>",
    "मिला</w>",
    "அருகிய</w>",
    "క్రీడా</w>",
    "குடியி",
    "बे</w>",
    "குடியிருப்ப",
    "రంగంలో</w>",
    "ிருந்தன</w>",
    "वाली</w>",
    "வந்தது</w>",
    "ఒలంప",
    "0இல்</w>",
    "कं",
    "கட்சி</w>",
    "క్రీడలలో</w>",
    "अर्थव्यवस्था</w>",
    "పర్యాయ",
    "நிலையாக</w>",
    "जाना</w>",
    "ுடனும்</w>",
    "పర్యాయాలు</w>",
    "மூன்று</w>",
    "ंत्र</w>",
    "்ல",
    "హాక",
    "எதிர்ப",
    "எதிர்பார",
    "ీలో</w>",
    "நீக்க",
    "इसकी</w>",
    "செய்யப்பட்ட",
    "బంగారు</w>",
    "உறுப்பினர்கள",
    "द्योग",
    "தொடர்ச்சியான</w>",
    "చద",
    "மாநில</w>",
    "िकी</w>",
    "செயலா",
    "ంద్</w>",
    "தலைவர்</w>",
    "టైటి",
    "பிரதமர்</w>",
    "गति</w>",
    "நாடாளுமன்றத்தின்</w>",
    "బు",
    "வையில்</w>",
    "विवाद</w>",
    "உள்ளனர்</w>",
    "నెహ",
    "பாணி</w>",
    "दू",
    "அமைப்பின்</w>",
    "ాల్</w>",
    "ொரு</w>",
    "नौ",
    "மாநிலங்கள்</w>",
    "గినది</w>",
    "ீடு</w>",
    "वन</w>",
    "ஒன்றியப்</w>",
    "ిక్‌</w>",
    "அய",
    "परंपरा",
    "த்தி</w>",
    "ాయి",
    "தலைய",
    "वर्ण",
    "கவி",
    "మన</w>",
    "தெற்காசிய</w>",
    "ியக்</w>",
    "కబడ్డ",
    "சோதன",
    "तीसर",
    "டுப்பு</w>",
    "టలు</w>",
    "கையொ",
    "वर्तमान</w>",
    "கையொப்ப",
    "ఖో</w>",
    "அதிகரித்துள்ளது</w>",
    "आदि</w>",
    "முந்தைய</w>",
    "పతాక",
    "உற்பத்தியில்</w>",
    "ंस</w>",
    "శక</w>",
    "இறக்குமதிய",
    "अफ्री",
    "శెలవు",
    "2016</w>",
    "கொள்",
    "अफ्रीका</w>",
    "శెలవుదినాలు</w>",
    "2024இல்</w>",
    "டிர",
    "रों</w>",
    "పక్క",
    "டிரில்லியன்</w>",
    "81</w>",
    "अभी</w>",
    "పక్కన</w>",
    "சந்தை</w>",
    "போல</w>",
    "पास</w>",
    "మాట్ల",
    "ாளர்களைக்</w>",
    "பெரிய",
    "केंद्र",
    "మాట్లాడ",
    "பெரியதாகும்</w>",
    "எண்ணெய்</w>",
    "మాట్లాడే</w>",
    "विभि",
    "பொருட்களாக</w>",
    "போக்க",
    "మానం</w>",
    "उत्पा",
    "ாளராகவும்</w>",
    "కెలు</w>",
    "मन</w>",
    "ஏற்றுமதியில்</w>",
    "மடங்க",
    "విద్యుత",
    "माना</w>",
    "ார்கள்</w>",
    "நிலவர",
    "విద్యుత్</w>",
    "गों</w>",
    "நிலவரப்</w>",
    "நுட்பத்</w>",
    "ప్ల",
    "ठ</w>",
    "்க்கப்படுகிறது</w>",
    "CEE",
    "கா</w>",
    "स्वरूप</w>",
    "तमिल</w>",
    "பேர்</w>",
    "மொழிகள்</w>",
    "सां",
    "சத",
    "CEE</w>",
    "பெண்களுக்கு</w>",
    "र्ष</w>",
    "கிராமப்புற",
    "భారత్‌",
    "தைப்</w>",
    "उस",
    "பேசு",
    "భారత్‌లో</w>",
    "அல",
    "प्रया",
    "அலுவ",
    "కళ</w>",
    "எஞ்சிய",
    "प्रयास</w>",
    "பரிமாற",
    "59</w>",
    "தனித்துவமான</w>",
    "लु",
    "சேர்ந்தவையாக</w>",
    "CI",
    "புட",
    "तो</w>",
    "கல்ல",
    "நாடக",
    "बनाने</w>",
    "பாரம்பரியங்கள்</w>",
    "நாடக</w>",
    "मू",
    "நடன</w>",
    "ஒட",
    "तु",
    "நாட்டுப்புற</w>",
    "தமிழ்</w>",
    "स्तर</w>",
    "CIA",
    "பொதுவான",
    "முறையே</w>",
    "CIA</w>",
    "जात",
    "ஆட",
    "மகளிர்</w>",
    "Fac",
    "बार</w>",
    "வேக</w>",
    "விளையாட்டுப்</w>",
    "िये</w>",
    "இப்போட்ட",
    "இப்போட்டியை</w>",
    "Fact",
    "இணையத்தளம்</w>",
    "यूरो",
    "Factb",
    "அரப",
    "यूरोप",
    "விரிகுட",
    "Factbo",
    "यूरोपीय</w>",
    "மியான்",
    "மியான்மர்</w>",
    "Factboo",
    "இலங்க",
    "ाई</w>",
    "நிக்க",
    "நிக்கோ",
    "Factbook</w>",
    "நிக்கோபா",
    "यों</w>",
    "நிக்கோபார்</w>",
    "hi",
    "தாய்",
    "काम",
    "தாய்லா",
    "தாய்லாந்து</w>",
    "Co",
    "இந்தோ",
    "सफ",
    "இந்தோன",
    "இந்தோனே",
    "குறைந்தது</w>",
    "सफल</w>",
    "முன்னரே</w>",
    "Cou",
    "தனி",
    "शांति</w>",
    "வேட்ட",
    "Coun",
    "ையா",
    "வாழ்ந்து</w>",
    "आन्",
    "ரீதியில்</w>",
    "Count",
    "ஆக்கியுள்ளது</w>",
    "ியற",
    "सिं",
    "ியற்</w>",
    "Countr",
    "இடத்தில்</w>",
    "ஆற்று</w>",
    "१९५",
    "Country",
    "வடிவமானது</w>",
    "ஆதார",
    "बना</w>",
    "இருக்கு</w>",
    "Country</w>",
    "வேத",
    "செய்யப்பட்ட</w>",
    "केवल</w>",
    "Pr",
    "பாதுகாக்க",
    "தோற்ற",
    "இதன",
    "इं",
    "Prof",
    "செய்யப்பட்டன</w>",
    "விலக்க",
    "पड़ो",
    "Profi",
    "லானது</w>",
    "த்திற்குள்</w>",
    "சைனம்</w>",
    "Profil",
    "पड़ोसी</w>",
    "சமூகப்</w>",
    "ித்தன</w>",
    "சகா",
    "Profile</w>",
    "१९६",
    "சகாப்த",
    "லைக்</w>",
    "ఆఫ్ఘని",
    "जलवायु</w>",
    "பெண்கள",
    "வீழ",
    "கண்டது</w>",
    "సరిహద్దుగా</w>",
    "कटि",
    "நம்ப",
    "இராச்சியங்கள்</w>",
    "భూభాగం</w>",
    "முறைகள",
    "बनी</w>",
    "தென்கிழக்கா",
    "சியாவின்</w>",
    "14",
    "கிறித்தவ",
    "जलो",
    "142</w>",
    "கடற்கரைகளில்</w>",
    "కోట్లకు</w>",
    "விட்டு</w>",
    "जलोढ़</w>",
    "தாக்குதல்</w>",
    "32</w>",
    "ட்டம்</w>",
    "87</w>",
    "நிறுவின</w>",
    "करता</w>",
    "263</w>",
    "விச",
    "చ</w>",
    "விசய",
    "காலம்</w>",
    "तु</w>",
    "విస్తీర్ణ",
    "கூற",
    "విస్తీర్ణంతో</w>",
    "சீக்கியம்</w>",
    "अप्रै",
    "వైశ",
    "அமைதிய",
    "தொடங்கி</w>",
    "వైశాల",
    "நிறுவனத்தின்</w>",
    "వైశాల్య",
    "மாற்றியது</w>",
    "వైశాల్యంలో</w>",
    "அதே</w>",
    "ఏడ",
    "அரச</w>",
    "अप्रैल</w>",
    "விடு",
    "ఏడవ",
    "1947இல்</w>",
    "ఏడవస్థానంలో</w>",
    "जू",
    "ுக்கள",
    "స్వే",
    "முசுலிம",
    "அதற்கு</w>",
    "స్వేచ",
    "मुख्य</w>",
    "வில்</w>",
    "స్వేచ్",
    "ஒரு",
    "స్వేచ్ఛ",
    "சனநாயக</w>",
    "अन्",
    "స్వేచ్ఛాయుత</w>",
    "மூல",
    "நிர்வக",
    "పార్లమెంటర",
    "தொகையுடைய</w>",
    "बन",
    "పార్లమెంటరీ</w>",
    "்கிறது</w>",
    "అణ్వ",
    "அமைப்புகள",
    "समर्थ",
    "இனங்கள",
    "అణ్వస్త",
    "பெயரளவு</w>",
    "అణ్వస్త్ర</w>",
    "1951ஆம்</w>",
    "समर्थन</w>",
    "కలిగిన</w>",
    "வீதமானது</w>",
    "శక్తిగా</w>",
    "்ந்துள்ளது</w>",
    "सहयोग</w>",
    "దక్షణ",
    "கோடிய",
    "దక్షణా",
    "கோடியிலிருந்து</w>",
    "దక్షణాసియాలో</w>",
    "जरा",
    "கோடியாக</w>",
    "சேவ",
    "ఏడు</w>",
    "ைகளுக்கு</w>",
    "సముద్రతీరము</w>",
    "्यम</w>",
    "மாகவும்</w>",
    "ఉండి</w>",
    "தாண்ட",
    "ఉపఖండములో</w>",
    "திரைப்பட",
    "सर्वो",
    "பங்கை</w>",
    "కూడుకొని</w>",
    "வருகின்றன</w>",
    "రహదారులను</w>",
    "सर्वोच्च</w>",
    "தன்மை</w>",
    "హిమాలయాలు</w>",
    "நாடாகும்</w>",
    "அளவில்</w>",
    "అరే",
    "न्यायालय</w>",
    "இராணுவச்</w>",
    "అరేబ",
    "ஊட்ட",
    "అరేబియా</w>",
    "ஊட்டச்ச",
    "अब</w>",
    "తూర్పు",
    "குறை",
    "குறைபா",
    "తూర్పున</w>",
    "ட்டின்</w>",
    "हथियार</w>",
    "బంగాళ",
    "நிலைகள்</w>",
    "బంగాళా",
    "சவா",
    "బంగాళాఖ",
    "ஐக்</w>",
    "2009ஆம்</w>",
    "బంగాళాఖాతం</w>",
    "இண்டிய",
    "ఎల్ల",
    "ஆசியா</w>",
    "ఎల్లలుగా</w>",
    "துல்ல",
    "துல்லிய",
    "మయ",
    "பதில",
    "మయన్మ",
    "பதிலுக்கு</w>",
    "మయన్మార్</w>",
    "शक्ति</w>",
    "பாரசீக</w>",
    "బంగ్లాదేశ్</w>",
    "ఆఫ్ఘాన",
    "लाख</w>",
    "ஹிந்து",
    "ఆఫ్ఘాని",
    "அகா",
    "ఆఫ్ఘానిస్తాన్</w>",
    "பேரரசின்</w>",
    "प्रतिश",
    "பண்டைய</w>",
    "దేశాలతో</w>",
    "அரசியலமைப்பு</w>",
    "సరిహద్దులను</w>",
    "प्रतिशत</w>",
    "இரண்டிலுமே</w>",
    "పంచుకుంట",
    "குறிப்பிடப்பட்டுள்ளது</w>",
    "పంచుకుంటోంది</w>",
    "வர்",
    "उद्य",
    "உண்மையில்</w>",
    "శ్రీలం",
    "பகுதியை</w>",
    "శ్రీలంక</w>",
    "வரலாறு</w>",
    "उद्योग</w>",
    "మాల్",
    "இந்தியாவானது</w>",
    "உணவுப்</w>",
    "మాల్దీ",
    "உற்பத்திப்</w>",
    "अमरी",
    "మాల్దీవులు</w>",
    "அமைப்புகள்</w>",
    "ఇండో",
    "டைந்தது</w>",
    "उपमहा",
    "ఇండోనే",
    "மொக",
    "ஞ்சதார",
    "ఇండోనేసియా</w>",
    "उपमहाद्वीप</w>",
    "லாவ",
    "దగ్",
    "ிரா</w>",
    "దగ్గర",
    "உயிர்</w>",
    "लिक</w>",
    "பொருட்களின்</w>",
    "దగ్గరలో</w>",
    "வேத</w>",
    "ద్వీప</w>",
    "दृष्टि</w>",
    "என்பதை</w>",
    "సింధు</w>",
    "ுகளையும்</w>",
    "श्री",
    "నాగరికత",
    "விவசாயிகள்</w>",
    "மக்களை</w>",
    "నాగరికతకు</w>",
    "बंग",
    "வைத்த</w>",
    "పుట్టిల్",
    "தக்காணப்</w>",
    "పుట్టిల్లు</w>",
    "பீட",
    "बौ",
    "பீடபூ",
    "బౌద్ధ</w>",
    "நிலையின்</w>",
    "జైన</w>",
    "கின்றன</w>",
    "సిక్కు</w>",
    "ுக்குக்</w>",
    "र्य</w>",
    "మతము",
    "எண்ணிக்கையில",
    "வாழ்க்க",
    "మతములకు</w>",
    "गुप्त</w>",
    "வாழ்க்கை</w>",
    "జన్మని",
    "காட்டுகின்றன</w>",
    "జన్మనిచ్చ",
    "நீர",
    "पश्चिमी</w>",
    "జన్మనిచ్చింది</w>",
    "அமைப்புகளானவை</w>",
    "முடிய",
    "బహుభాషా</w>",
    "मुस्",
    "நகரமயமாக்க",
    "సంఘము</w>",
    "ிக்குக்</w>",
    "मुस्लि",
    "వన",
    "உருவாய",
    "உருவாயின</w>",
    "వన్య",
    "त्या",
    "சைன",
    "వన్యప్రా",
    "அச்ச",
    "వన్యప్రాణ",
    "வகுப்பின",
    "दिल्",
    "వన్యప్రాణుల</w>",
    "ிடம",
    "ிருக்கும்</w>",
    "వైవిధ్యం</w>",
    "दिल्ली</w>",
    "இணைத்த",
    "జనాభాలో</w>",
    "தொலைதூர</w>",
    "सल्",
    "2023</w>",
    "கட்டுப்பாட்டில்</w>",
    "சுய",
    "దాటే",
    "सल्त",
    "தனிய",
    "దాటేసింది</w>",
    "எண்ணப்படுகிறது</w>",
    "సామ్రాజ్య</w>",
    "சோழ",
    "सल्तन",
    "ప్రస్తుత</w>",
    "வெளிக்</w>",
    "மைப்</w>",
    "సరిహద్దుల",
    "सल्तनत</w>",
    "கட்டுப்பாட்டை</w>",
    "సరిహద్దులలో</w>",
    "சிக்க",
    "बनाई</w>",
    "కొద్ద",
    "லான</w>",
    "ிப்பானது</w>",
    "కొద్ది",
    "पंजा",
    "பிரதிபல",
    "కొద్దిభాగం</w>",
    "புரவல",
    "మిన",
    "பெற்றன</w>",
    "इंडिया</w>",
    "మినహ",
    "நடுக்க",
    "இயல",
    "మినహాయ",
    "विस्तार</w>",
    "கன்ன",
    "మినహాయించి</w>",
    "விரிவடைய</w>",
    "हिं",
    "సరిహద్దులు</w>",
    "ஆட்சியாள",
    "தோற்க",
    "దాటిన</w>",
    "समाप्त</w>",
    "தோற்கடிக்க",
    "ప్రాంతాలతో</w>",
    "ஆட்சிக்கு</w>",
    "ఒకే</w>",
    "பல்ல",
    "संघीय</w>",
    "చక్ర",
    "வர்களால்</w>",
    "தற்காக</w>",
    "చక్రవర్",
    "बढ़कर</w>",
    "அழிக்க",
    "చక్రవర్తి</w>",
    "இணைக்க",
    "शुरु",
    "పాలనలో</w>",
    "வேறுபா",
    "వున్న",
    "தமிழில்</w>",
    "பக்தி</w>",
    "వున్నా</w>",
    "கோய",
    "తదు",
    "ணங்கள்</w>",
    "తదుపర",
    "பில",
    "ன்ச",
    "తదుపరి</w>",
    "நேரங்களில்</w>",
    "విడి",
    "ர்களும்</w>",
    "విడిపోయింది</w>",
    "शुरुआ",
    "தங்க",
    "క్రమంగా</w>",
    "ஒன்றிணைத்த",
    "ते",
    "அடிக்க",
    "அடிக்கடி</w>",
    "రాజ్యాలను</w>",
    "இசுலாமிய</w>",
    "प्रौ",
    "స్వాధ",
    "சுல்தானகம்</w>",
    "பகுதியின்</w>",
    "స్వాధీన",
    "प्रौद्योग",
    "தாகவும்</w>",
    "స్వాధీనం</w>",
    "போதும்</w>",
    "చేసు",
    "प्रौद्योगिकी</w>",
    "அல்லாத</w>",
    "చేసుకో",
    "சட்டங்கள்</w>",
    "संगी",
    "மங்க",
    "చేసుకోవడ",
    "ோல",
    "చేసుకోవడంతో</w>",
    "மாய",
    "संगीत</w>",
    "బ్రిటీష్</w>",
    "ஏற்படுத்தியது</w>",
    "விளைவாக</w>",
    "నేరుగా</w>",
    "बी</w>",
    "அது</w>",
    "యున",
    "மாறாக</w>",
    "యునై",
    "कम</w>",
    "வழியாக</w>",
    "యునైటె",
    "ரீதியிலான</w>",
    "देखा</w>",
    "ப்படுத்தப்பட்ட</w>",
    "యునైటెడ్</w>",
    "இணைப்ப",
    "కింగ",
    "இணைப்புகள்</w>",
    "पुरा",
    "కింగ్డ",
    "நடைபெற்றது</w>",
    "பாரசீக",
    "కింగ్డమ్</w>",
    "जिसका</w>",
    "வெளிப்ப",
    "పాలన",
    "வுள",
    "పాలనలో",
    "इतिहा",
    "பொருளாதாரக்</w>",
    "పాలనలోకి</w>",
    "வருவாய",
    "घा",
    "வருவாய்களை</w>",
    "నాయకత్వా",
    "நாண",
    "నాయకత్వాన</w>",
    "நாணய",
    "पहु",
    "కోసం</w>",
    "ியைச்</w>",
    "இலக்கிய</w>",
    "అహి",
    "्ञ",
    "கிட",
    "అహిం",
    "இராச",
    "అహింస",
    "तम</w>",
    "தெள",
    "అహింసాయుత</w>",
    "தெளிவ",
    "विक",
    "எளி",
    "పోరా",
    "மையும்</w>",
    "పోరాటం</w>",
    "சமூகக்</w>",
    "विकस",
    "తర్వాత</w>",
    "ுக்கள்</w>",
    "ఆవి",
    "ஆட்சியின்</w>",
    "विकसित</w>",
    "இணைந்த",
    "ఆవిర్",
    "எதிர்த்த",
    "ఆవిర్భవించ",
    "जैसे</w>",
    "அங்க",
    "ఆవిర్భవించింది</w>",
    "அங்கீ",
    "विभिन्न</w>",
    "கொடுத்த",
    "మార్కె",
    "விவகார",
    "வகையில்</w>",
    "ानी</w>",
    "మార్కెట్</w>",
    "போய",
    "ఆధారిత</w>",
    "நிறுவனங்கள்</w>",
    "प्रारम्भ</w>",
    "பாச",
    "సంస్కరణలు</w>",
    "நிறுவனமானது</w>",
    "అనుసరి",
    "छो",
    "முன்னேற",
    "అనుసరిస్త",
    "முன்னேறிய</w>",
    "छोटे</w>",
    "ுடைய",
    "అనుసరిస్తూ</w>",
    "ுடையதாக</w>",
    "అయింది</w>",
    "அனுமதிய",
    "लोगों</w>",
    "అయిత",
    "அனுமதியள",
    "అయితే</w>",
    "அந்த</w>",
    "आकर्",
    "மேற்கொண்ட</w>",
    "పేద",
    "தான்</w>",
    "పేదరిక",
    "हिस्",
    "ொரு",
    "పేదరికం</w>",
    "குடியேற்ற</w>",
    "किन्तु</w>",
    "குறைக்க",
    "నిర",
    "சீர்திருத்தம்</w>",
    "నిరక్షరాస్యత</w>",
    "ராக</w>",
    "न्न",
    "అవి",
    "ஹவு",
    "అవినీ",
    "வேண்டும்</w>",
    "क्रम",
    "வரையற",
    "అవినీతి</w>",
    "இம்",
    "పోష",
    "वंश</w>",
    "ல்வாய்கள்</w>",
    "పోషకాహార</w>",
    "அறிமுக",
    "उसके</w>",
    "உடன",
    "లోపం</w>",
    "கடுமையான</w>",
    "సవా",
    "ளர்ச்சி</w>",
    "धि",
    "సవాళ్లను</w>",
    "ஏற்பட்டது</w>",
    "ఎదు",
    "பகுதிகளை</w>",
    "कोई</w>",
    "ானவர்கள்</w>",
    "ఎదుర్",
    "எதிரான</w>",
    "ఎదుర్కొ",
    "कृष",
    "முடிக",
    "ఎదుర్కొంట",
    "எண்ணிக்கையில்</w>",
    "राजधान",
    "ఎదుర్కొంటున్నది</w>",
    "வாய்ப்பு</w>",
    "உருவாக்கப்பட்டது</w>",
    "పుట్టు",
    "ப்படாத</w>",
    "राजधानी</w>",
    "పుట్టుపూర్వ",
    "தாகக்</w>",
    "పుట్టుపూర్వో",
    "வெட்ட",
    "विय",
    "உணவு</w>",
    "పుట్టుపూర్వోత్",
    "அதிகரிப்ப",
    "పుట్టుపూర్వోత్తర",
    "फि",
    "இன்றிய",
    "పుట్టుపూర్వోత్తరాలు</w>",
    "பஞ்ச</w>",
    "किये</w>",
    "ఉన్నట్లు</w>",
    "செல்ல",
    "உலகப்</w>",
    "చెప్పుకోవచ్చు</w>",
    "இயக்கம்</w>",
    "स्त</w>",
    "మొదటిది</w>",
    "மெதுவ",
    "ద్వీపం</w>",
    "வெற்றிய",
    "पुर्",
    "கடை",
    "వేదాలలో</w>",
    "கடைசி</w>",
    "ఇవ్వ",
    "पुर्त",
    "உந்த",
    "ఇవ్వబడిన</w>",
    "தேசிய",
    "पुर्तगा",
    "ఇప్పటికీ</w>",
    "பிரச்ச",
    "பிரச்சின",
    "ప్రార్థ",
    "சனநாயகக்</w>",
    "फ्रा",
    "ప్రార్థన",
    "நலவாய",
    "ప్రార్థనలలో</w>",
    "அமைப்பில்</w>",
    "व्यापा",
    "உறுப்பினர்</w>",
    "ఉపయోగిస్తారు</w>",
    "0களில்</w>",
    "ఉద",
    "व्यापार</w>",
    "தாராள",
    "ఉదా</w>",
    "தாராளமயமாக்க",
    "ద్వీపే</w>",
    "लड़",
    "சோவிய",
    "சோவியத்</w>",
    "మేరో",
    "ஒன்றிய",
    "जनता</w>",
    "మేరోః",
    "சார்</w>",
    "మేరోః</w>",
    "பாதிக்கப்பட்டுள்ளது</w>",
    "यक</w>",
    "வன்",
    "దక్షిణది",
    "மானதாகும்</w>",
    "దక్షిణదిగ్",
    "आन्दोलन</w>",
    "தேவ",
    "దక్షిణదిగ్భాగ",
    "ஆரம்பித்தது</w>",
    "దక్షిణదిగ్భాగే</w>",
    "सामा",
    "தென்கிழக்கு</w>",
    "திசையில்</w>",
    "శ్రీశై",
    "ஓட",
    "सामाज",
    "శ్రీశైల",
    "வடகிழக்கு</w>",
    "శ్రీశైలస్",
    "புவித்த",
    "सामाजिक</w>",
    "இடை",
    "శ్రీశైలస్య</w>",
    "இரண்டுமே</w>",
    "ప్రదేశే</w>",
    "संघर्ष</w>",
    "இமயமலை",
    "కృష్",
    "கச",
    "కృష్ణ",
    "तों</w>",
    "தடுக்க",
    "ையிலிருந்து</w>",
    "కృష్ణా</w>",
    "முடைய</w>",
    "दार</w>",
    "గోదావరీ</w>",
    "உருவாக்கப்பட்ட</w>",
    "స్థానే</w>",
    "सिंह</w>",
    "అంటే</w>",
    "ரேக",
    "ீடுகள",
    "గిన్న",
    "जनवरी</w>",
    "గిన్నె</w>",
    "ிம்ப",
    "కాయ",
    "राष्ट्र</w>",
    "சதுப்பு</w>",
    "కాయ</w>",
    "निरपे",
    "పండ్",
    "ஆகியவையாகும்</w>",
    "పండ్లు</w>",
    "கலக்கின்றன</w>",
    "तांत्र",
    "దీన",
    "தாவ",
    "தடுப்ப",
    "దీనికి</w>",
    "रही</w>",
    "ந்தர",
    "ఆ</w>",
    "காடுகளின்</w>",
    "భరతవర్ష",
    "शिय",
    "தீவுகள்</w>",
    "்ப</w>",
    "భరతవర్షం</w>",
    "காற்றுகளை</w>",
    "నాటి</w>",
    "பதிய",
    "వచ్చినది</w>",
    "ஆதிக்கம்</w>",
    "पर्वत",
    "భరతుడు</w>",
    "பன",
    "அதிகரிக்கும்</w>",
    "ఇతను</w>",
    "जहाँ</w>",
    "பல்வகைமை</w>",
    "విశ్",
    "லாக</w>",
    "విశ్వా",
    "नदियाँ</w>",
    "அனைத்துப்</w>",
    "வாழ்",
    "విశ్వామిత",
    "வாழ்வி",
    "धान</w>",
    "విశ్వామిత్ర</w>",
    "காணப்படுகின்றன</w>",
    "మేనక",
    "புள்ள",
    "कहते</w>",
    "మేనకల</w>",
    "விவர",
    "78",
    "కుమార్",
    "ड़ा</w>",
    "வகைகள",
    "కుమార్త",
    "ஆக்கிரமித்த",
    "కుమార్తె</w>",
    "पूर्वी</w>",
    "ஆக்கிரமித்துள்ளது</w>",
    "மேற்குத்</w>",
    "శకుంత",
    "கைப்</w>",
    "जून</w>",
    "శకుంతల</w>",
    "அதிகமாக</w>",
    "కుమార",
    "பிரிவானது</w>",
    "मानसू",
    "కుమారుడు</w>",
    "க்குக்</w>",
    "இயற்க",
    "సింధూనది</w>",
    "मानसून</w>",
    "சிறப்பம்ச",
    "పూర్వపు</w>",
    "ப்படுவதில்லை</w>",
    "పర్ష",
    "ियां</w>",
    "சுவையுடைய</w>",
    "ம்பு</w>",
    "పర్షియ",
    "உயிரினங்கள்</w>",
    "२०१",
    "పర్షియనులు</w>",
    "பரிமாற்ற",
    "గ్రీ",
    "அழிந்து</w>",
    "राजन",
    "గ్రీకులు</w>",
    "45</w>",
    "வாழும்</w>",
    "సింధూనద",
    "राजनै",
    "மின்</w>",
    "సింధూనదికి</w>",
    "கான",
    "ఆవల</w>",
    "राजनैतिक</w>",
    "வெண",
    "పేరుతో</w>",
    "முடிந்த</w>",
    "தசாப்தங்களின்</w>",
    "ारा",
    "పి",
    "ாக்க",
    "పిలిచ",
    "திருத்த",
    "बाहरी</w>",
    "పిలిచారు</w>",
    "ோள",
    "கட்சிகள",
    "రూపాంతరం</w>",
    "सरकारें</w>",
    "ஜனத",
    "చెంది</w>",
    "ஜனதா</w>",
    "బ్రిటీషు</w>",
    "एन",
    "உருவாக்கும்</w>",
    "ఆంగ్ల",
    "கட்டாய",
    "கர்ல",
    "परे",
    "ఆంగ్లే",
    "ிதான</w>",
    "ఆంగ్లేయ",
    "நேருவ",
    "प्रत्य",
    "ఆంగ్లేయులు</w>",
    "இறப்ப",
    "சாஸ்த",
    "ప్రాముఖ్య",
    "माध",
    "சாஸ்திர",
    "ప్రాముఖ్యతను</w>",
    "ானார்</w>",
    "పొందినది</w>",
    "माध्यम</w>",
    "வரின்</w>",
    "గుర్తి",
    "கட்சியாக</w>",
    "சிங",
    "दान</w>",
    "గుర్తిం",
    "சிங்</w>",
    "గుర్తింపు</w>",
    "நடந்த</w>",
    "अधिकार</w>",
    "ఇంక",
    "முன்னண",
    "கூட்டணியானது</w>",
    "ఇంకా</w>",
    "केन्द्र",
    "1991ஆம்</w>",
    "హిందూస్తాన్</w>",
    "ாவ்</w>",
    "అనునది</w>",
    "तना",
    "அரசாங்கத்தை</w>",
    "రూపాంతరమే</w>",
    "ஆதரவ",
    "இருந்தனர்</w>",
    "रूस</w>",
    "ప్రదేశ్‌</w>",
    "வெற்றிக",
    "భింబ",
    "வெற்றிகர",
    "భింబె",
    "ஜனநாய",
    "ஜனநாயகக்</w>",
    "భింబెట్",
    "மைக்</w>",
    "భింబెట్క",
    "భింబెట్కా</w>",
    "अलावा</w>",
    "மோக",
    "వద్ద",
    "தேர்ந்தெடுக்கப்பட்ட</w>",
    "முதல",
    "వద్ద</w>",
    "अभ",
    "4வது</w>",
    "లభ",
    "பட்ச</w>",
    "अभिय",
    "లభ్య",
    "அரசாங்க</w>",
    "లభ్యమైన</w>",
    "ஓர",
    "दारी</w>",
    "விளக்க",
    "రాత",
    "தலைவராக</w>",
    "రాతియ",
    "अमेरिका</w>",
    "உள்ளார்</w>",
    "రాతియుగ",
    "ப்படுகிறார்</w>",
    "ுள்ளார்</w>",
    "రాతియుగపు</w>",
    "तरह</w>",
    "அரசாங்கத்தின்</w>",
    "శిలా",
    "வையானது</w>",
    "टन</w>",
    "శిలాగ",
    "அழைக்கப்படும்</w>",
    "శిలాగృ",
    "உள்ளடக்கியதாக</w>",
    "ுகின்றனர்</w>",
    "శిలాగృహ",
    "ஒவ்வ",
    "శిలాగృహాలు</w>",
    "चीफ</w>",
    "ஒவ்வொரு</w>",
    "కుడ",
    "நடத்தப்படுகின்றன</w>",
    "தேர்ந்தெடுக்கப்படுகின்றனர்</w>",
    "కుడ్య",
    "र्व</w>",
    "தொகையில்</w>",
    "కుడ్యచిత్ర",
    "நிதி",
    "डा",
    "కుడ్యచిత్రాలు</w>",
    "ப்பட்டதாகும்</w>",
    "మానవు",
    "உச்ச</w>",
    "पर्य",
    "போன்ற",
    "మానవుని</w>",
    "ఉన",
    "भाषाएँ</w>",
    "அண்டை</w>",
    "ఉనిక",
    "உறவ",
    "2ஆம்</w>",
    "ఉనికికి</w>",
    "भील</w>",
    "தேசத்தின்</w>",
    "ఆధారాలు</w>",
    "1987</w>",
    "सिने",
    "శాశ",
    "பங்கெடுத்துள்ளது</w>",
    "శాశ్వ",
    "வழங்க",
    "मिलिय",
    "பிராந்தியக்</w>",
    "శాశ్వత</w>",
    "கூட்டமைப்பு</w>",
    "నివా",
    "मिलियन</w>",
    "நாடுகளுடன்</w>",
    "నివాస",
    "இக்கொ",
    "இக்கொள்க",
    "నివాసాలు</w>",
    "nd",
    "ிடும்</w>",
    "సంవత్సార",
    "सागर</w>",
    "ங்க</w>",
    "సంవత్సారాల</w>",
    "ணி</w>",
    "కిందట",
    "விமான",
    "கப்ப",
    "కిందట</w>",
    "लद",
    "கப்பல்கள்</w>",
    "క్రి</w>",
    "கட்டுப்பா",
    "ीव</w>",
    "సమయ",
    "தற்கா",
    "தற்காப்பு</w>",
    "श्रीलं",
    "காலத்த",
    "సమయంలో</w>",
    "श्रीलंका</w>",
    "அமெரிக்காவுக்கு</w>",
    "నియో",
    "எர",
    "बंगा",
    "నియోలి",
    "செலவீனமானது</w>",
    "72</w>",
    "నియోలిథ",
    "फैली</w>",
    "நிதிய",
    "నియోలిథిక్</w>",
    "33</w>",
    "बौद्ध</w>",
    "మెహ",
    "கொள்வன",
    "మెహర్",
    "கொள்வனவு</w>",
    "मौर्य</w>",
    "உலகிலேயே</w>",
    "మెహర్గర్</w>",
    "इस्",
    "அன்றிலிருந்து</w>",
    "ఉపఖండపు</w>",
    "इस्ला",
    "కని",
    "முக்கியத்துவம்</w>",
    "2017ஆம்</w>",
    "కనిప",
    "जमा</w>",
    "2022இல்</w>",
    "కనిపించింది</w>",
    "160</w>",
    "मुस्लिम</w>",
    "విధంగా</w>",
    "தொலைத்</w>",
    "సింధుాల",
    "வேதிப்</w>",
    "नाओं</w>",
    "உயிரித்</w>",
    "సింధుాలో",
    "उत्तरी</w>",
    "உப",
    "సింధుాలోయ</w>",
    "சுர",
    "लगा",
    "ఆసియాలో</w>",
    "பொற",
    "பொறியியல்</w>",
    "పట్టణ</w>",
    "कालीन</w>",
    "சராச",
    "వర్ధ",
    "नगर</w>",
    "சராசரிய",
    "ுள்ளனர்</w>",
    "திறனில்</w>",
    "వర్ధిల్ల",
    "लंबे</w>",
    "செய்யும்</w>",
    "వర్ధిల్లిన</w>",
    "மதிப்பிட",
    "पंजाब</w>",
    "సింధులోయ</w>",
    "భారతంలో</w>",
    "स्ट</w>",
    "எதிர்பார்க்கப்படுகிறது</w>",
    "వారసత్వానికి</w>",
    "அறிக்கையின்</w>",
    "निवे",
    "విలువై",
    "உற்பத்தியானது</w>",
    "విలువైన</w>",
    "அறிக்கையானது</w>",
    "प्रभ",
    "விலை</w>",
    "సే",
    "१८",
    "மும்ப",
    "సేవ</w>",
    "மும்பை</w>",
    "वशा",
    "అశో",
    "வெளியிட",
    "ிக்கிறது</w>",
    "అశోకు",
    "वशाली</w>",
    "தொழில",
    "అశోకుడు</w>",
    "பொதுவான</w>",
    "विरो",
    "వం",
    "த்திற்கான</w>",
    "వంశ",
    "மக்களில்</w>",
    "स्वतंत्र</w>",
    "தமிழ்",
    "వంశంలోని</w>",
    "विभाज",
    "2007இல்</w>",
    "గుప్",
    "மடங்காக</w>",
    "గుప్తుల",
    "जिन्हें</w>",
    "கணக்கெடுப்பில்</w>",
    "గుప్తులకాల",
    "आय</w>",
    "93</w>",
    "గుప్తులకాలం</w>",
    "விகித",
    "స్వర్ణ</w>",
    "வரிச",
    "యుగ",
    "கேர",
    "रता</w>",
    "ஆரிய</w>",
    "యుగం</w>",
    "பேசுகின்றனர்</w>",
    "వర్ణించ",
    "அலுவல்</w>",
    "వర్ణించబడింది</w>",
    "पुरु",
    "த்தையும்</w>",
    "కాలాల్లో</w>",
    "தொன்",
    "बढ़ती</w>",
    "தொன்ம",
    "చాళ",
    "தொன்மவிய",
    "सेवा",
    "చాళు",
    "வடிவம்</w>",
    "చాళుక్య",
    "கலையானது</w>",
    "त्म",
    "க்கான</w>",
    "చాళుక్యులు</w>",
    "वै",
    "செதுக்க",
    "చేర",
    "பண்டைக்க",
    "చేర</w>",
    "विक</w>",
    "பண்டைக்கால</w>",
    "చో",
    "கூட",
    "चल</w>",
    "ாகவோ</w>",
    "చోళ",
    "ந்தா</w>",
    "कश्",
    "చోళులు</w>",
    "ங்களுக்கும்</w>",
    "పల్లవులు</w>",
    "கலையின்</w>",
    "कश्मी",
    "சமயத்தைச்</w>",
    "పాండ్య",
    "कश्मीर</w>",
    "சற்று</w>",
    "పాండ్యులు</w>",
    "பொழு",
    "మొదలగువ",
    "लेकर</w>",
    "பொழுது</w>",
    "మొదలగువారు</w>",
    "சதுர",
    "लै",
    "இலக்கியமானது</w>",
    "విజ్",
    "வேலைப்பாடுகள",
    "परंपरागत</w>",
    "విజ్ఞ",
    "ஊடக",
    "విజ్ఞాన</w>",
    "மணிப்ப",
    "सों</w>",
    "ுரி</w>",
    "గణిత",
    "करते</w>",
    "ாட்டம்</w>",
    "గణితం</w>",
    "பிரபலமான</w>",
    "ఖగో",
    "किए</w>",
    "அசா",
    "ఖగోళ</w>",
    "தெல",
    "संग",
    "திரைத்</w>",
    "మతమ",
    "காணப்படும்</w>",
    "पत्",
    "మతములు</w>",
    "பொதுவானவையாக</w>",
    "తత్వ</w>",
    "ிகின்றனர்</w>",
    "सिंध",
    "திருமணங்கள்</w>",
    "పరిఢ",
    "सिंधु</w>",
    "நாள்</w>",
    "పరిఢవి",
    "வரத",
    "పరిఢవిల్ల",
    "मत",
    "வரதட்ச",
    "పరిఢవిల్లాయి</w>",
    "சு</w>",
    "प्रका",
    "ைசா",
    "సహస్రాబ్ది",
    "வீதங்களானவை</w>",
    "रूप",
    "సహస్రాబ్దిలో</w>",
    "அணியப்படும்</w>",
    "తురు",
    "சல்",
    "हिन्दु",
    "తురుష్",
    "தளர",
    "अर्",
    "கமீ",
    "తురుష్కుల</w>",
    "பிரபலமான",
    "దండయాత్ర",
    "मि</w>",
    "லா</w>",
    "దండయాత్రలతో</w>",
    "உணவின்</w>",
    "आर",
    "சேர்க்க",
    "సుల్",
    "சுட",
    "इतिहास</w>",
    "సుల్త",
    "பருப்ப",
    "సుల్తానులు</w>",
    "சைவ</w>",
    "समृ",
    "మొగల",
    "உணவுகள்</w>",
    "सभ्यता</w>",
    "விளையாட்டு</w>",
    "మొగలులు</w>",
    "துடுப்ப",
    "స్థానిక</w>",
    "अनेक</w>",
    "துடுப்பாட்ட</w>",
    "సామ్రాజ్య",
    "க்கோ",
    "पहुँच",
    "2002</w>",
    "సామ్రాజ్యాలు</w>",
    "நடத்தவ",
    "अवशेष</w>",
    "అధికారాన్ని</w>",
    "நடத்தவுள்ளது</w>",
    "నిల",
    "rn",
    "फा",
    "నిలబె",
    "जीवन</w>",
    "నిలబెట్ట",
    "ment</w>",
    "నిలబెట్టుకున్న",
    "आज</w>",
    "నిలబెట్టుకున్నాయి</w>",
    "தெற்காசியாவில்</w>",
    "लना</w>",
    "సహస్రాబ్ది</w>",
    "நாடு</w>",
    "मोह",
    "பரப்பளவு</w>",
    "మధ్యల</w>",
    "நாடும்</w>",
    "పోర్చ",
    "தொகையின்</w>",
    "जो",
    "உலகில்</w>",
    "పోర్చుగ",
    "இதற்குத்</w>",
    "வடக்கே</w>",
    "आस",
    "పోర్చుగల్</w>",
    "தேசம்</w>",
    "ஆகியவற்றுடன்</w>",
    "ఫ్రా",
    "பெருங்கடலில்</w>",
    "भर</w>",
    "இலங்கை</w>",
    "ఫ్రాన్",
    "மால",
    "यहाँ</w>",
    "மாலத்தீவ",
    "ఫ్రాన్స్</w>",
    "அருகில்</w>",
    "ையைப்</w>",
    "लौ",
    "ఇంగ్లండ",
    "வந்தனர்</w>",
    "உண்ப",
    "ఇంగ్లండు</w>",
    "காலமாக</w>",
    "आगमन</w>",
    "வேற்ற",
    "వ్యాపారం</w>",
    "மைகள",
    "दों</w>",
    "இப்பகுதிய",
    "చేస",
    "குடியமர",
    "வாழ்வானது</w>",
    "చేసే</w>",
    "मैदानी</w>",
    "தோன்றியது</w>",
    "பரிண",
    "తలంప",
    "பரிணாம",
    "धि</w>",
    "அடைந்த</w>",
    "తలంపుతో</w>",
    "சிந்துவ",
    "వచ్చి</w>",
    "उनके</w>",
    "சிந்துவெ",
    "சிந்துவெளி</w>",
    "ఇక్కడి</w>",
    "ஆயிரம்</w>",
    "यि",
    "இல்லாத</w>",
    "పరిస్థితి</w>",
    "வடமேற்கில்</w>",
    "இதற்கான</w>",
    "पूरे</w>",
    "గమనించి</w>",
    "வாய்</w>",
    "சமயத்தின்</w>",
    "ఆక్రమించ",
    "தோற்றத்தை</w>",
    "अपना</w>",
    "விடுக",
    "ఆక్రమించుకున్న",
    "மொழிகளானவை</w>",
    "उच्च</w>",
    "மேற்குப்</w>",
    "ఆక్రమించుకున్నారు</w>",
    "மாற்றம்</w>",
    "உருவாகத்</w>",
    "కంపెనీ",
    "ंकि</w>",
    "மரபு</w>",
    "ிராத</w>",
    "కంపెనీపై</w>",
    "மௌரிய</w>",
    "परिणा",
    "குப்தப்</w>",
    "1857లో</w>",
    "வடி</w>",
    "परिणाम",
    "நிலத்தை</w>",
    "విఫ",
    "இப்பேர",
    "இப்பேரரச",
    "విఫల</w>",
    "परिणामस्वरूप</w>",
    "ப்பாற்ற",
    "பெண்களின்</w>",
    "ప్రఖ్య",
    "வீழ்ச்ச",
    "राजवंश</w>",
    "ప్రఖ్యాత",
    "வீழ்ச்சிய",
    "இக்காலம்</w>",
    "ప్రఖ్యాతి</w>",
    "लाया</w>",
    "தீண்ட",
    "தீண்டா",
    "గాంచ",
    "தீண்டாமையை</w>",
    "चे",
    "நம்பிக்க",
    "గాంచిన</w>",
    "ங்களுக்குப்</w>",
    "கிறித்தவம்</w>",
    "चो",
    "ప్రథ",
    "இசுலாம்</w>",
    "சம்</w>",
    "ప్రథమ</w>",
    "மேற்குக்</w>",
    "वृ",
    "நிறுவப்பட்டன</w>",
    "జాతి",
    "இராணுவங்கள்</w>",
    "प्रणा",
    "சமவெள",
    "జాతిప",
    "நடத்தின</w>",
    "நீடித்து</w>",
    "జాతిపిత</w>",
    "प्रणाली</w>",
    "பண்பாட்டை</w>",
    "15",
    "నాయకత్వంలో</w>",
    "நூற்றாண்டுகள",
    "स्त्र",
    "ளிர",
    "సుద",
    "பிரித்தானியக்</w>",
    "चा</w>",
    "ஆட்சியானது</w>",
    "సుదీర్",
    "விரிவடைந்தது</w>",
    "సుదీర్ఘ",
    "தாக்கத்தை</w>",
    "सांस्कृ",
    "ஏற்படுத்திய</w>",
    "సుదీర్ఘ</w>",
    "விடுதலை</w>",
    "இயக்கமானது</w>",
    "सांस्कृतिक</w>",
    "ఫలిత",
    "அகி",
    "அகிம்ச",
    "ఫలితంగా</w>",
    "४७</w>",
    "அறியப்படுகிறது</w>",
    "முடித்து</w>",
    "ఆగ",
    "ஆக்கக்</w>",
    "उसे</w>",
    "பெரும்பான்மையாகக்</w>",
    "ఆగష్ట",
    "மேலா",
    "மேலாட்சி</w>",
    "हरा</w>",
    "ఆగష్టు</w>",
    "சுதந்திரமான</w>",
    "பிரிக்கப்பட்டது</w>",
    "15న</w>",
    "பெருமளவிலான</w>",
    "हा</w>",
    "1950ஆம்</w>",
    "ஒருங்க",
    "पड़ा</w>",
    "ஒருங்கிண",
    "స్వత",
    "குடியரசாக</w>",
    "நிர்வகிக்க",
    "స్వతంత్ర",
    "उन्हें</w>",
    "திகழ்கிறது</w>",
    "2022ஆம்</w>",
    "స్వతంత్రం</w>",
    "86</w>",
    "दु",
    "திலிருந்து</w>",
    "సిద్ధ",
    "உயர்ந்துள்ளது</w>",
    "कृषि</w>",
    "సిద్ధించింది</w>",
    "தொகையானது</w>",
    "2023ஆம்</w>",
    "సర్వస",
    "புவி</w>",
    "जन</w>",
    "இலக்க",
    "సర్వసత్త",
    "விண்",
    "போதன",
    "उनकी</w>",
    "సర్వసత్తాక</w>",
    "சம</w>",
    "வறுமை</w>",
    "ఏర్పడింది</w>",
    "१०</w>",
    "வீதத்தை</w>",
    "ங்களையுடைய</w>",
    "మతాలతో</w>",
    "அதிகமான</w>",
    "जों</w>",
    "செலவ",
    "పరమైన</w>",
    "பாலின",
    "ாகு",
    "मार्",
    "సంఘర్షణ",
    "ஊட்டச்சத்த",
    "ஊட்டச்சத்துக்</w>",
    "సంఘర్షణలను</w>",
    "காற்று</w>",
    "फ्रांस</w>",
    "நிலம்</w>",
    "చవిచూ",
    "பெரும்பல்",
    "च्छ",
    "பெரும்பல்வகை",
    "చవిచూసింది</w>",
    "பல்வகைமைய",
    "இடங்கள்</w>",
    "ప్రాజ",
    "द्रो",
    "ிர்கள்</w>",
    "இடங்களில்</w>",
    "ప్రాజాస్వామ్య</w>",
    "பாதுகாக்கப்பட்ட</w>",
    "वे</w>",
    "లక్షణాన్ని</w>",
    "ிடங்களில்</w>",
    "ஆதரவு</w>",
    "आप",
    "కాపాడుకుంటూ",
    "பெற்றுள்ளன</w>",
    "்க்</w>",
    "కాపాడుకుంటూనే</w>",
    "்டு</w>",
    "इसमें</w>",
    "மூன்றாம்</w>",
    "1977</w>",
    "சொல்லான</w>",
    "தெர",
    "४०</w>",
    "பயன்படுத்தப்பட்டது</w>",
    "இச்ச",
    "మధ్యకాలంలో</w>",
    "वास्त",
    "இண்டியா</w>",
    "எல",
    "అప్పటి</w>",
    "னிய</w>",
    "ंच",
    "கிரேக்க</w>",
    "ఇందిర",
    "மொழியின்</w>",
    "இண்ட",
    "माता</w>",
    "ఇందిరా</w>",
    "இண்டோ",
    "பெறப்பட்டது</w>",
    "విధించిన</w>",
    "न्त्र",
    "குறிக்கிறது</w>",
    "ఎమ"
  ],
  "merges": [
    [
      "e",
      "</w>"
    ],
    [
      "s",
      "</w>"
    ],
    [
      "t",
      "h"
    ],
    [
      "n",
      "</w>"
    ],
    [
      "d",
      "</w>"
    ],
    [
      "a",
      "n"
    ],
    [
      "e",
      "r"
    ],
    [
      ",",
      "</w>"
    ],
    [
      "i",
      "n"
    ],
    [
      "th",
      "e</w>"
    ],
    [
      "t",
      "</w>"
    ],
    [
      "y",
      "</w>"
    ],
    [
      "a",
      "</w>"
    ],
    [
      "a",
      "l"
    ],
    [
      "a",
      "r"
    ],
    [
      ".",
      "</w>"
    ],
    [
      "t",
      "i"
    ],
    [
      "d",
      "i"
    ],
    [
      "e",
      "n"
    ],
    [
      "o",
      "r"
    ],
    [
      "e",
      "d</w>"
    ],
    [
      "o",
      "n"
    ],
    [
      "an",
      "d</w>"
    ],
    [
      "o",
      "f"
    ],
    [
      "of",
      "</w>"
    ],
    [
      "I",
      "n"
    ],
    [
      "r",
      "e"
    ],
    [
      "In",
      "di"
    ],
    [
      "o",
      "</w>"
    ],
    [
      "o",
      "n</w>"
    ],
    [
      "al",
      "</w>"
    ],
    [
      "g",
      "</w>"
    ],
    [
      "e",
      "s</w>"
    ],
    [
      "s",
      "t"
    ],
    [
      "i",
      "n</w>"
    ],
    [
      "=",
      "</w>"
    ],
    [
      "er",
      "</w>"
    ],
    [
      "l",
      "i"
    ],
    [
      "a",
      "n</w>"
    ],
    [
      "a",
      "t"
    ],
    [
      "in",
      "g</w>"
    ],
    [
      "u",
      "r"
    ],
    [
      "o",
      "m"
    ],
    [
      "a",
      "s</w>"
    ],
    [
      "Indi",
      "a</w>"
    ],
    [
      "i",
      "c"
    ],
    [
      "t",
      "o</w>"
    ],
    [
      "e",
      "c"
    ],
    [
      "o",
      "u"
    ],
    [
      "th",
      "</w>"
    ],
    [
      "s",
      "t</w>"
    ],
    [
      "r",
      "i"
    ],
    [
      "l",
      "y</w>"
    ],
    [
      "a",
      "ti"
    ],
    [
      "s",
      "i"
    ],
    [
      "h",
      "</w>"
    ],
    [
      "e",
      "m"
    ],
    [
      "T",
      "h"
    ],
    [
      "en",
      "t</w>"
    ],
    [
      "-",
      "</w>"
    ],
    [
      "a",
      "m"
    ],
    [
      "t",
      "s</w>"
    ],
    [
      "u",
      "l"
    ],
    [
      "i",
      "s</w>"
    ],
    [
      "or",
      "</w>"
    ],
    [
      "r",
      "o"
    ],
    [
      "l",
      "o"
    ],
    [
      "Th",
      "e</w>"
    ],
    [
      "r",
      "a"
    ],
    [
      "i",
      "r"
    ],
    [
      "i",
      "s"
    ],
    [
      "b",
      "y</w>"
    ],
    [
      "a",
      "s"
    ],
    [
      "v",
      "er"
    ],
    [
      "c",
      "on"
    ],
    [
      "w",
      "i"
    ],
    [
      "1",
      "9"
    ],
    [
      "Indi",
      "an</w>"
    ],
    [
      "c",
      "h"
    ],
    [
      "0",
      "</w>"
    ],
    [
      "e",
      "n</w>"
    ],
    [
      "s",
      "u"
    ],
    [
      "c",
      "e</w>"
    ],
    [
      "a",
      "g"
    ],
    [
      "d",
      "u"
    ],
    [
      "p",
      "o"
    ],
    [
      "en",
      "t"
    ],
    [
      "'",
      "</w>"
    ],
    [
      "ar",
      "</w>"
    ],
    [
      "i",
      "l"
    ],
    [
      "ati",
      "on</w>"
    ],
    [
      "w",
      "e"
    ],
    [
      "u",
      "n"
    ],
    [
      "e",
      "x"
    ],
    [
      "w",
      "h"
    ],
    [
      "a",
      "d"
    ],
    [
      "b",
      "e"
    ],
    [
      "o",
      "l"
    ],
    [
      "i",
      "t"
    ],
    [
      "m",
      "</w>"
    ],
    [
      "1",
      "</w>"
    ],
    [
      "2",
      "0"
    ],
    [
      "d",
      "e"
    ],
    [
      "w",
      "as</w>"
    ],
    [
      "wi",
      "th</w>"
    ],
    [
      "on",
      "s</w>"
    ],
    [
      "ti",
      "on</w>"
    ],
    [
      "f",
      "or"
    ],
    [
      "v",
      "e</w>"
    ],
    [
      "l",
      "e"
    ],
    [
      "c",
      "i"
    ],
    [
      "%",
      "</w>"
    ],
    [
      "er",
      "n</w>"
    ],
    [
      "r",
      "om"
    ],
    [
      "a",
      "b"
    ],
    [
      "an",
      "g"
    ],
    [
      "i",
      "</w>"
    ],
    [
      "p",
      "l"
    ],
    [
      "i",
      "st"
    ],
    [
      "a",
      "c"
    ],
    [
      "a",
      "t</w>"
    ],
    [
      "u",
      "s"
    ],
    [
      ";",
      "</w>"
    ],
    [
      "s",
      "p"
    ],
    [
      "er",
      "e</w>"
    ],
    [
      "al",
      "ly</w>"
    ],
    [
      "m",
      "o"
    ],
    [
      "at",
      "e</w>"
    ],
    [
      "rom",
      "</w>"
    ],
    [
      "f",
      "rom</w>"
    ],
    [
      "h",
      "as</w>"
    ],
    [
      "i",
      "g"
    ],
    [
      "ic",
      "</w>"
    ],
    [
      "h",
      "a"
    ],
    [
      "t",
      "er"
    ],
    [
      "ic",
      "h</w>"
    ],
    [
      "p",
      "ar"
    ],
    [
      "in",
      "c"
    ],
    [
      "c",
      "o"
    ],
    [
      "s",
      "e"
    ],
    [
      "I",
      "n</w>"
    ],
    [
      "s",
      "e</w>"
    ],
    [
      "m",
      "a"
    ],
    [
      "t",
      "ed</w>"
    ],
    [
      "wh",
      "ich</w>"
    ],
    [
      "l",
      "</w>"
    ],
    [
      "s",
      "h"
    ],
    [
      "re",
      "s"
    ],
    [
      "c",
      "</w>"
    ],
    [
      "g",
      "i"
    ],
    [
      "a",
      "st"
    ],
    [
      "u",
      "d"
    ],
    [
      "w",
      "</w>"
    ],
    [
      "con",
      "t"
    ],
    [
      "t",
      "y</w>"
    ],
    [
      "t",
      "ur"
    ],
    [
      "s",
      "ti"
    ],
    [
      "e",
      "l"
    ],
    [
      "c",
      "om"
    ],
    [
      "(",
      "</w>"
    ],
    [
      ")",
      "</w>"
    ],
    [
      "i",
      "ts</w>"
    ],
    [
      "i",
      "m"
    ],
    [
      "i",
      "es</w>"
    ],
    [
      "f",
      "or</w>"
    ],
    [
      "m",
      "ent</w>"
    ],
    [
      "e",
      "st</w>"
    ],
    [
      "t",
      "er</w>"
    ],
    [
      "l",
      "e</w>"
    ],
    [
      "l",
      "ar"
    ],
    [
      "e",
      "a"
    ],
    [
      "an",
      "d"
    ],
    [
      "ar",
      "e</w>"
    ],
    [
      "v",
      "i"
    ],
    [
      "w",
      "or"
    ],
    [
      "l",
      "d</w>"
    ],
    [
      "w",
      "ere</w>"
    ],
    [
      "p",
      "ro"
    ],
    [
      "o",
      "ver"
    ],
    [
      "c",
      "ent"
    ],
    [
      "ou",
      "n"
    ],
    [
      "v",
      "er</w>"
    ],
    [
      "2",
      "</w>"
    ],
    [
      "er",
      "s</w>"
    ],
    [
      "t",
      "u"
    ],
    [
      "ar",
      "y</w>"
    ],
    [
      "g",
      "en"
    ],
    [
      "lar",
      "g"
    ],
    [
      "on",
      "g</w>"
    ],
    [
      "in",
      "g"
    ],
    [
      "ec",
      "on"
    ],
    [
      "\"",
      "</w>"
    ],
    [
      "on",
      "al</w>"
    ],
    [
      "7",
      "</w>"
    ],
    [
      "0",
      "0</w>"
    ],
    [
      "at",
      "ed</w>"
    ],
    [
      "g",
      "h"
    ],
    [
      "k",
      "</w>"
    ],
    [
      "4",
      "</w>"
    ],
    [
      "p",
      "er"
    ],
    [
      "5",
      "</w>"
    ],
    [
      "e",
      "ar"
    ],
    [
      "p",
      "or"
    ],
    [
      "b",
      "u"
    ],
    [
      "a",
      "p"
    ],
    [
      "u",
      "m"
    ],
    [
      "n",
      "o"
    ],
    [
      "over",
      "n"
    ],
    [
      "m",
      "in"
    ],
    [
      "en",
      "d"
    ],
    [
      "is",
      "m</w>"
    ],
    [
      "as",
      "s"
    ],
    [
      "C",
      "on"
    ],
    [
      "t",
      "r"
    ],
    [
      "a",
      "k"
    ],
    [
      "m",
      "ar"
    ],
    [
      "u",
      "p"
    ],
    [
      "ag",
      "e</w>"
    ],
    [
      "H",
      "in"
    ],
    [
      "a",
      "in"
    ],
    [
      "ic",
      "al</w>"
    ],
    [
      "a",
      "f"
    ],
    [
      "6",
      "</w>"
    ],
    [
      "C",
      "h"
    ],
    [
      "m",
      "il"
    ],
    [
      "b",
      "ec"
    ],
    [
      "a",
      "y"
    ],
    [
      "econ",
      "om"
    ],
    [
      "em",
      "</w>"
    ],
    [
      "li",
      "on</w>"
    ],
    [
      "b",
      "o"
    ],
    [
      "ou",
      "th</w>"
    ],
    [
      "v",
      "ed</w>"
    ],
    [
      "n",
      "i"
    ],
    [
      "tur",
      "e</w>"
    ],
    [
      "an",
      "y</w>"
    ],
    [
      "8",
      "</w>"
    ],
    [
      "an",
      "ce</w>"
    ],
    [
      "n",
      "or"
    ],
    [
      "m",
      "e</w>"
    ],
    [
      "ir",
      "</w>"
    ],
    [
      "in",
      "to</w>"
    ],
    [
      "p",
      "e"
    ],
    [
      "ur",
      "ing</w>"
    ],
    [
      "it",
      "y</w>"
    ],
    [
      "c",
      "ul"
    ],
    [
      "m",
      "e"
    ],
    [
      "cent",
      "ur"
    ],
    [
      "du",
      "c"
    ],
    [
      "p",
      "ul"
    ],
    [
      "C",
      "E"
    ],
    [
      "CE",
      "</w>"
    ],
    [
      "am",
      "e</w>"
    ],
    [
      "lo",
      "w"
    ],
    [
      "3",
      "</w>"
    ],
    [
      "overn",
      "ment</w>"
    ],
    [
      "20",
      "1"
    ],
    [
      "s",
      "h</w>"
    ],
    [
      "su",
      "b"
    ],
    [
      "ang",
      "u"
    ],
    [
      "s",
      "o"
    ],
    [
      "sti",
      "tu"
    ],
    [
      "p",
      "ri"
    ],
    [
      "t",
      "ra"
    ],
    [
      "e",
      "ly</w>"
    ],
    [
      "at",
      "es</w>"
    ],
    [
      "th",
      "e"
    ],
    [
      "an",
      "s</w>"
    ],
    [
      "l",
      "at"
    ],
    [
      "for",
      "m"
    ],
    [
      "m",
      "i"
    ],
    [
      "ti",
      "ons</w>"
    ],
    [
      "n",
      "e"
    ],
    [
      "l",
      "angu"
    ],
    [
      "Hin",
      "du"
    ],
    [
      "c",
      "l"
    ],
    [
      "c",
      "al</w>"
    ],
    [
      "f",
      "ir"
    ],
    [
      "inc",
      "l"
    ],
    [
      "min",
      "ist"
    ],
    [
      "si",
      "a</w>"
    ],
    [
      "po",
      "pul"
    ],
    [
      "ou",
      "s</w>"
    ],
    [
      "d",
      "er</w>"
    ],
    [
      "re",
      "gi"
    ],
    [
      "l",
      "ed</w>"
    ],
    [
      "d",
      "ec"
    ],
    [
      "q",
      "u"
    ],
    [
      "incl",
      "ud"
    ],
    [
      "c",
      "h</w>"
    ],
    [
      "s",
      "er"
    ],
    [
      "wor",
      "ld</w>"
    ],
    [
      "en",
      "ce</w>"
    ],
    [
      "o",
      "c"
    ],
    [
      "re",
      "c"
    ],
    [
      "re",
      "s</w>"
    ],
    [
      "t",
      "an"
    ],
    [
      "a",
      "st</w>"
    ],
    [
      "fir",
      "st</w>"
    ],
    [
      "th",
      "er</w>"
    ],
    [
      "s",
      "y"
    ],
    [
      "om",
      "e</w>"
    ],
    [
      "a",
      "v"
    ],
    [
      "st",
      "r"
    ],
    [
      "d",
      "h"
    ],
    [
      "t",
      "ing</w>"
    ],
    [
      "re",
      "li"
    ],
    [
      "re",
      "as"
    ],
    [
      "sp",
      "ec"
    ],
    [
      "g",
      "overnment</w>"
    ],
    [
      "i",
      "t</w>"
    ],
    [
      "d",
      "ern</w>"
    ],
    [
      "g",
      "ra"
    ],
    [
      "us",
      "ed</w>"
    ],
    [
      "bec",
      "ame</w>"
    ],
    [
      "en",
      "ts</w>"
    ],
    [
      "d",
      "er"
    ],
    [
      "r",
      "ou"
    ],
    [
      "g",
      "h</w>"
    ],
    [
      "sy",
      "st"
    ],
    [
      "d",
      "uring</w>"
    ],
    [
      "m",
      "or"
    ],
    [
      "p",
      "h"
    ],
    [
      "s",
      "o</w>"
    ],
    [
      "b",
      "e</w>"
    ],
    [
      "res",
      "s</w>"
    ],
    [
      "el",
      "ec"
    ],
    [
      "larg",
      "est</w>"
    ],
    [
      "cont",
      "in"
    ],
    [
      "st",
      "ern</w>"
    ],
    [
      "9",
      "</w>"
    ],
    [
      "ha",
      "d</w>"
    ],
    [
      "p",
      "ir"
    ],
    [
      "pir",
      "e</w>"
    ],
    [
      "bu",
      "t</w>"
    ],
    [
      "be",
      "en</w>"
    ],
    [
      "f",
      "e"
    ],
    [
      "g",
      "ro"
    ],
    [
      "u",
      "c"
    ],
    [
      "centur",
      "y</w>"
    ],
    [
      "i",
      "o"
    ],
    [
      "al",
      "s</w>"
    ],
    [
      "ha",
      "ve</w>"
    ],
    [
      "al",
      "so</w>"
    ],
    [
      "c",
      "es</w>"
    ],
    [
      "v",
      "e"
    ],
    [
      "gen",
      "er"
    ],
    [
      "f",
      "ic"
    ],
    [
      "mo",
      "st</w>"
    ],
    [
      "d",
      "ed</w>"
    ],
    [
      "a",
      "y</w>"
    ],
    [
      "e",
      "t"
    ],
    [
      "ag",
      "es</w>"
    ],
    [
      "th",
      "ern</w>"
    ],
    [
      "c",
      "ast"
    ],
    [
      "E",
      "m"
    ],
    [
      "reli",
      "gi"
    ],
    [
      "li",
      "t"
    ],
    [
      "ri",
      "ti"
    ],
    [
      "t",
      "o"
    ],
    [
      "s",
      "s</w>"
    ],
    [
      "mil",
      "lion</w>"
    ],
    [
      "u",
      "</w>"
    ],
    [
      "pl",
      "e</w>"
    ],
    [
      "su",
      "ch</w>"
    ],
    [
      "d",
      "e</w>"
    ],
    [
      "p",
      "</w>"
    ],
    [
      "com",
      "m"
    ],
    [
      "d",
      "s</w>"
    ],
    [
      "Con",
      "g"
    ],
    [
      "Cong",
      "ress</w>"
    ],
    [
      "S",
      "outh</w>"
    ],
    [
      "en",
      "g"
    ],
    [
      "y",
      "ear"
    ],
    [
      "year",
      "s</w>"
    ],
    [
      "li",
      "f"
    ],
    [
      "an",
      "s"
    ],
    [
      "t",
      "w"
    ],
    [
      "r",
      "ul"
    ],
    [
      "mo",
      "dern</w>"
    ],
    [
      "in",
      "f"
    ],
    [
      "af",
      "ter</w>"
    ],
    [
      "ma",
      "j"
    ],
    [
      "syst",
      "em</w>"
    ],
    [
      "g",
      "re"
    ],
    [
      "o",
      "ver</w>"
    ],
    [
      "inc",
      "reas"
    ],
    [
      "th",
      "at</w>"
    ],
    [
      "tra",
      "di"
    ],
    [
      "n",
      "um"
    ],
    [
      "mor",
      "e</w>"
    ],
    [
      "in",
      "e</w>"
    ],
    [
      "b",
      "er</w>"
    ],
    [
      "20",
      "0"
    ],
    [
      "p",
      "u"
    ],
    [
      "c",
      "oun"
    ],
    [
      "ea",
      "st</w>"
    ],
    [
      "A",
      "f"
    ],
    [
      "r",
      "ic"
    ],
    [
      "p",
      "re"
    ],
    [
      "d",
      "om"
    ],
    [
      "di",
      "ver"
    ],
    [
      "s",
      "c"
    ],
    [
      "h",
      "i</w>"
    ],
    [
      "tw",
      "o</w>"
    ],
    [
      "l",
      "u"
    ],
    [
      "th",
      "ou"
    ],
    [
      "o",
      "ur"
    ],
    [
      "d",
      "ing</w>"
    ],
    [
      ":",
      "</w>"
    ],
    [
      "bo",
      "th</w>"
    ],
    [
      "k",
      "e"
    ],
    [
      "a",
      "in</w>"
    ],
    [
      "f",
      "i"
    ],
    [
      "c",
      "a"
    ],
    [
      "t",
      "or"
    ],
    [
      "ati",
      "onal</w>"
    ],
    [
      "pri",
      "me</w>"
    ],
    [
      "A",
      "sia</w>"
    ],
    [
      "c",
      "e"
    ],
    [
      "ist",
      "an</w>"
    ],
    [
      "ig",
      "h"
    ],
    [
      "B",
      "CE</w>"
    ],
    [
      "cast",
      "e</w>"
    ],
    [
      "so",
      "ci"
    ],
    [
      "f",
      "</w>"
    ],
    [
      "r",
      "al</w>"
    ],
    [
      "i",
      "al</w>"
    ],
    [
      "be",
      "g"
    ],
    [
      "t",
      "ec"
    ],
    [
      "19",
      "5"
    ],
    [
      "20",
      "2"
    ],
    [
      "stitu",
      "tion</w>"
    ],
    [
      "we",
      "en</w>"
    ],
    [
      "–",
      "</w>"
    ],
    [
      "ti",
      "es</w>"
    ],
    [
      "ur",
      "b"
    ],
    [
      "—",
      "</w>"
    ],
    [
      "al",
      "l</w>"
    ],
    [
      "minist",
      "er</w>"
    ],
    [
      "P",
      "</w>"
    ],
    [
      "19",
      "6"
    ],
    [
      "19",
      "9"
    ],
    [
      "u",
      "t"
    ],
    [
      "lif",
      "e</w>"
    ],
    [
      "langu",
      "age</w>"
    ],
    [
      "B",
      "ud"
    ],
    [
      "Bud",
      "dh"
    ],
    [
      "th",
      "is</w>"
    ],
    [
      "ar",
      "m"
    ],
    [
      "Em",
      "pire</w>"
    ],
    [
      "B",
      "riti"
    ],
    [
      "Briti",
      "sh</w>"
    ],
    [
      "i",
      "st</w>"
    ],
    [
      "popul",
      "ation</w>"
    ],
    [
      "gro",
      "w"
    ],
    [
      "uc",
      "le"
    ],
    [
      "ucle",
      "ar</w>"
    ],
    [
      "be",
      "t"
    ],
    [
      "cl",
      "ass"
    ],
    [
      "the",
      "ir</w>"
    ],
    [
      "b",
      "li"
    ],
    [
      "in",
      "ce</w>"
    ],
    [
      "c",
      "y</w>"
    ],
    [
      "P",
      "ak"
    ],
    [
      "Pak",
      "istan</w>"
    ],
    [
      "In",
      "d"
    ],
    [
      "contin",
      "ent</w>"
    ],
    [
      "er",
      "g"
    ],
    [
      "we",
      "stern</w>"
    ],
    [
      "v",
      "ing</w>"
    ],
    [
      "su",
      "p"
    ],
    [
      "po",
      "li"
    ],
    [
      "ati",
      "ons</w>"
    ],
    [
      "M",
      "a"
    ],
    [
      "t",
      "a</w>"
    ],
    [
      "ar",
      "t</w>"
    ],
    [
      "econom",
      "ic</w>"
    ],
    [
      "beg",
      "an</w>"
    ],
    [
      "lo",
      "g"
    ],
    [
      "ang",
      "es</w>"
    ],
    [
      "A",
      "</w>"
    ],
    [
      "larg",
      "e</w>"
    ],
    [
      "p",
      "er</w>"
    ],
    [
      "si",
      "ty</w>"
    ],
    [
      "A",
      "c"
    ],
    [
      "l",
      "l</w>"
    ],
    [
      "m",
      "any</w>"
    ],
    [
      "gh",
      "t</w>"
    ],
    [
      "re",
      "a"
    ],
    [
      "bet",
      "ween</w>"
    ],
    [
      "p",
      "ed</w>"
    ],
    [
      "low",
      "ing</w>"
    ],
    [
      "ti",
      "onal</w>"
    ],
    [
      "f",
      "ol"
    ],
    [
      "d",
      "ance</w>"
    ],
    [
      "tr",
      "y</w>"
    ],
    [
      "I",
      "t</w>"
    ],
    [
      "lat",
      "er</w>"
    ],
    [
      "l",
      "ong</w>"
    ],
    [
      "ad",
      "e</w>"
    ],
    [
      "for",
      "m</w>"
    ],
    [
      "E",
      "ur"
    ],
    [
      "f",
      "f"
    ],
    [
      "nor",
      "thern</w>"
    ],
    [
      "o",
      "se</w>"
    ],
    [
      "i",
      "d"
    ],
    [
      "e",
      "st"
    ],
    [
      "ex",
      "p"
    ],
    [
      "econom",
      "y</w>"
    ],
    [
      "w",
      "n</w>"
    ],
    [
      "em",
      "ent</w>"
    ],
    [
      "com",
      "p"
    ],
    [
      "ist",
      "or"
    ],
    [
      "u",
      "res</w>"
    ],
    [
      "urb",
      "an</w>"
    ],
    [
      "po",
      "w"
    ],
    [
      "ab",
      "le</w>"
    ],
    [
      "o",
      "p"
    ],
    [
      "un",
      "der</w>"
    ],
    [
      "lo",
      "w</w>"
    ],
    [
      "pu",
      "bli"
    ],
    [
      "publi",
      "c</w>"
    ],
    [
      "s",
      "ince</w>"
    ],
    [
      "s",
      "outh</w>"
    ],
    [
      "we",
      "st</w>"
    ],
    [
      "v",
      "es</w>"
    ],
    [
      "A",
      "n"
    ],
    [
      "l",
      "and"
    ],
    [
      "h",
      "um"
    ],
    [
      "sub",
      "continent</w>"
    ],
    [
      "th",
      "an</w>"
    ],
    [
      "0",
      "00</w>"
    ],
    [
      "Th",
      "e"
    ],
    [
      "l",
      "en"
    ],
    [
      "u",
      "m</w>"
    ],
    [
      "B",
      "y</w>"
    ],
    [
      "k",
      "ed</w>"
    ],
    [
      "ti",
      "cal</w>"
    ],
    [
      "c",
      "re"
    ],
    [
      "i",
      "li"
    ],
    [
      "ti",
      "on"
    ],
    [
      "er",
      "ed</w>"
    ],
    [
      "le",
      "g"
    ],
    [
      "inf",
      "lu"
    ],
    [
      "increas",
      "ed</w>"
    ],
    [
      "li",
      "ter"
    ],
    [
      "r",
      "ate</w>"
    ],
    [
      "c",
      "or"
    ],
    [
      "t",
      "t"
    ],
    [
      "pe",
      "o"
    ],
    [
      "o",
      "o"
    ],
    [
      "ou",
      "t</w>"
    ],
    [
      "includ",
      "ing</w>"
    ],
    [
      "oun",
      "d</w>"
    ],
    [
      "s",
      "ed</w>"
    ],
    [
      "ma",
      "in"
    ],
    [
      "class",
      "ical</w>"
    ],
    [
      "pow",
      "er</w>"
    ],
    [
      "ur",
      "e</w>"
    ],
    [
      "il",
      "</w>"
    ],
    [
      "s",
      "ul"
    ],
    [
      "ve",
      "lo"
    ],
    [
      "Af",
      "ter</w>"
    ],
    [
      "it",
      "ed</w>"
    ],
    [
      "ti",
      "ve</w>"
    ],
    [
      "no",
      "t</w>"
    ],
    [
      "am",
      "ong</w>"
    ],
    [
      "on",
      "e</w>"
    ],
    [
      "co",
      "ur"
    ],
    [
      "di",
      "</w>"
    ],
    [
      "201",
      "1</w>"
    ],
    [
      "ar",
      "e"
    ],
    [
      "19",
      "4"
    ],
    [
      "Ch",
      "in"
    ],
    [
      "N",
      "e"
    ],
    [
      "nor",
      "th</w>"
    ],
    [
      "d",
      "am"
    ],
    [
      "M",
      "o"
    ],
    [
      "e",
      "v"
    ],
    [
      "is",
      "ed</w>"
    ],
    [
      "Hindu",
      "</w>"
    ],
    [
      "i",
      "k"
    ],
    [
      "M",
      "u"
    ],
    [
      "Mu",
      "gh"
    ],
    [
      "ati",
      "ve</w>"
    ],
    [
      "rul",
      "e</w>"
    ],
    [
      "C",
      "om"
    ],
    [
      "n",
      "ed</w>"
    ],
    [
      "t",
      "ro"
    ],
    [
      "or",
      "ity</w>"
    ],
    [
      "i",
      "on</w>"
    ],
    [
      "ati",
      "c</w>"
    ],
    [
      "par",
      "li"
    ],
    [
      "parli",
      "am"
    ],
    [
      "U",
      "S"
    ],
    [
      "US",
      "</w>"
    ],
    [
      "$",
      "</w>"
    ],
    [
      "thou",
      "gh</w>"
    ],
    [
      "n",
      "uclear</w>"
    ],
    [
      "st",
      "ate</w>"
    ],
    [
      "diver",
      "sity</w>"
    ],
    [
      "h",
      "istor"
    ],
    [
      "ci",
      "ent</w>"
    ],
    [
      "ex",
      "t"
    ],
    [
      "peo",
      "ple</w>"
    ],
    [
      "h",
      "ar"
    ],
    [
      "per",
      "io"
    ],
    [
      "perio",
      "d</w>"
    ],
    [
      "st",
      "y"
    ],
    [
      "l",
      "es</w>"
    ],
    [
      "is",
      "ation</w>"
    ],
    [
      "gra",
      "ph"
    ],
    [
      "de",
      "velo"
    ],
    [
      "par",
      "t</w>"
    ],
    [
      "al",
      "ay"
    ],
    [
      "on",
      "g"
    ],
    [
      "w",
      "ar"
    ],
    [
      "num",
      "ber</w>"
    ],
    [
      "ter",
      "n"
    ],
    [
      "spec",
      "ies</w>"
    ],
    [
      "gener",
      "al</w>"
    ],
    [
      "m",
      "us"
    ],
    [
      "of",
      "fic"
    ],
    [
      "coun",
      "try</w>"
    ],
    [
      "v",
      "en"
    ],
    [
      "s",
      "ou"
    ],
    [
      "B",
      "eng"
    ],
    [
      "l",
      "and</w>"
    ],
    [
      "Chin",
      "a</w>"
    ],
    [
      "ti",
      "me</w>"
    ],
    [
      "regi",
      "on</w>"
    ],
    [
      "em",
      "erg"
    ],
    [
      "In",
      "du"
    ],
    [
      "ri",
      "ver</w>"
    ],
    [
      "b",
      "as"
    ],
    [
      "mil",
      "len"
    ],
    [
      "millen",
      "ni"
    ],
    [
      "millenni",
      "um</w>"
    ],
    [
      "S",
      "ans"
    ],
    [
      "Sans",
      "k"
    ],
    [
      "Sansk",
      "ri"
    ],
    [
      "Sanskri",
      "t</w>"
    ],
    [
      "a",
      "w"
    ],
    [
      "langu",
      "ages</w>"
    ],
    [
      "er",
      "e"
    ],
    [
      "sc",
      "ri"
    ],
    [
      "M",
      "us"
    ],
    [
      "ain",
      "s</w>"
    ],
    [
      "k",
      "s</w>"
    ],
    [
      "P",
      "un"
    ],
    [
      "Pun",
      "j"
    ],
    [
      "Punj",
      "ab"
    ],
    [
      "Mugh",
      "al</w>"
    ],
    [
      "n",
      "on</w>"
    ],
    [
      "th",
      "rou"
    ],
    [
      "ti",
      "c</w>"
    ],
    [
      "mi",
      "lit"
    ],
    [
      "milit",
      "ary</w>"
    ],
    [
      "at",
      "ely</w>"
    ],
    [
      "r",
      "on"
    ],
    [
      "c",
      "ed</w>"
    ],
    [
      "v",
      "ar"
    ],
    [
      "s",
      "ome</w>"
    ],
    [
      "ic",
      "ally</w>"
    ],
    [
      "ne",
      "w</w>"
    ],
    [
      "A",
      "r"
    ],
    [
      "k",
      "ing</w>"
    ],
    [
      "t",
      "ri"
    ],
    [
      "th",
      "em</w>"
    ],
    [
      "o",
      "graph"
    ],
    [
      "ca",
      "used</w>"
    ],
    [
      "U",
      "n"
    ],
    [
      "si",
      "g"
    ],
    [
      "le",
      "ad"
    ],
    [
      "c",
      "s</w>"
    ],
    [
      "s",
      "ur"
    ],
    [
      "ser",
      "ved</w>"
    ],
    [
      "ur",
      "al</w>"
    ],
    [
      "ch",
      "o"
    ],
    [
      "co",
      "o"
    ],
    [
      "th",
      "em"
    ],
    [
      "them",
      "ati"
    ],
    [
      "R",
      "e"
    ],
    [
      "b",
      "i"
    ],
    [
      "th",
      "east</w>"
    ],
    [
      "I",
      "s"
    ],
    [
      "n",
      "o</w>"
    ],
    [
      "oc",
      "c"
    ],
    [
      "Indu",
      "s</w>"
    ],
    [
      "ir",
      "d</w>"
    ],
    [
      "Ind",
      "o</w>"
    ],
    [
      "ing",
      "s</w>"
    ],
    [
      "soci",
      "al</w>"
    ],
    [
      "y",
      "a</w>"
    ],
    [
      "ex",
      "por"
    ],
    [
      "Mus",
      "li"
    ],
    [
      "C",
      "ent"
    ],
    [
      "me",
      "di"
    ],
    [
      "cul",
      "ture</w>"
    ],
    [
      "S",
      "ik"
    ],
    [
      "centur",
      "ies</w>"
    ],
    [
      "re",
      "l"
    ],
    [
      "c",
      "ol"
    ],
    [
      "e",
      "ig"
    ],
    [
      "1",
      "8"
    ],
    [
      "duc",
      "ed</w>"
    ],
    [
      "o",
      "ther</w>"
    ],
    [
      "par",
      "ti"
    ],
    [
      "maj",
      "ority</w>"
    ],
    [
      "e",
      "d"
    ],
    [
      "throu",
      "gh</w>"
    ],
    [
      "b",
      "il"
    ],
    [
      "bil",
      "lion</w>"
    ],
    [
      "maj",
      "or</w>"
    ],
    [
      "as",
      "h"
    ],
    [
      "s",
      "ing</w>"
    ],
    [
      "our",
      "</w>"
    ],
    [
      "h",
      "o"
    ],
    [
      "f",
      "in"
    ],
    [
      "si",
      "an</w>"
    ],
    [
      "spec",
      "i"
    ],
    [
      "r",
      "en"
    ],
    [
      "p",
      "res"
    ],
    [
      "d",
      "ay</w>"
    ],
    [
      "tan",
      "t</w>"
    ],
    [
      "we",
      "ver</w>"
    ],
    [
      "f",
      "am"
    ],
    [
      "ic",
      "s</w>"
    ],
    [
      "c",
      "al"
    ],
    [
      "m",
      "an"
    ],
    [
      "con",
      "si"
    ],
    [
      "an",
      "t</w>"
    ],
    [
      "i",
      "v"
    ],
    [
      "b",
      "al</w>"
    ],
    [
      "wh",
      "o</w>"
    ],
    [
      "r",
      "u"
    ],
    [
      "s",
      "s"
    ],
    [
      "di",
      "rec"
    ],
    [
      "W",
      "or"
    ],
    [
      "Wor",
      "ld</w>"
    ],
    [
      "r",
      "ural</w>"
    ],
    [
      "ri",
      "tor"
    ],
    [
      "H",
      "im"
    ],
    [
      "Him",
      "alay"
    ],
    [
      "19",
      "8"
    ],
    [
      "r",
      "a</w>"
    ],
    [
      "elec",
      "tion</w>"
    ],
    [
      "ma",
      "themati"
    ],
    [
      "194",
      "7</w>"
    ],
    [
      "S",
      "e"
    ],
    [
      "Beng",
      "al</w>"
    ],
    [
      "ri",
      "</w>"
    ],
    [
      "dom",
      "in"
    ],
    [
      "t",
      "ly</w>"
    ],
    [
      "m",
      "ade</w>"
    ],
    [
      "emerg",
      "ed</w>"
    ],
    [
      "th",
      "ird</w>"
    ],
    [
      "ar",
      "ch"
    ],
    [
      "ear",
      "ly</w>"
    ],
    [
      "Hindu",
      "ism</w>"
    ],
    [
      "l",
      "in"
    ],
    [
      "poli",
      "tical</w>"
    ],
    [
      "w",
      "om"
    ],
    [
      "wom",
      "en</w>"
    ],
    [
      "d",
      "le</w>"
    ],
    [
      "religi",
      "ous</w>"
    ],
    [
      "am",
      "</w>"
    ],
    [
      "Cent",
      "ral</w>"
    ],
    [
      "D",
      "el"
    ],
    [
      "Del",
      "hi</w>"
    ],
    [
      "tan",
      "ate</w>"
    ],
    [
      "Punjab",
      "</w>"
    ],
    [
      "f",
      "t</w>"
    ],
    [
      "tur",
      "al</w>"
    ],
    [
      "ac",
      "y</w>"
    ],
    [
      "E",
      "ast</w>"
    ],
    [
      "Com",
      "p"
    ],
    [
      "Comp",
      "any</w>"
    ],
    [
      "Indi",
      "ans</w>"
    ],
    [
      "tec",
      "h"
    ],
    [
      "v",
      "ement</w>"
    ],
    [
      "e",
      "qu"
    ],
    [
      "at",
      "s</w>"
    ],
    [
      "cor",
      "ding</w>"
    ],
    [
      "E",
      "n"
    ],
    [
      "ast",
      "ern</w>"
    ],
    [
      "or",
      "ig"
    ],
    [
      "at",
      "a</w>"
    ],
    [
      "form",
      "s</w>"
    ],
    [
      "hum",
      "an</w>"
    ],
    [
      "h",
      "r"
    ],
    [
      "e",
      "sti"
    ],
    [
      "an",
      "im"
    ],
    [
      "t",
      "es</w>"
    ],
    [
      "il",
      "l"
    ],
    [
      "ti",
      "m"
    ],
    [
      "tim",
      "es</w>"
    ],
    [
      "ag",
      "ric"
    ],
    [
      "agric",
      "ul"
    ],
    [
      "cont",
      "ro"
    ],
    [
      "ou",
      "s"
    ],
    [
      "tr",
      "ans"
    ],
    [
      "A",
      "l"
    ],
    [
      "ar",
      "ti"
    ],
    [
      "mar",
      "ke"
    ],
    [
      "a",
      "j"
    ],
    [
      "l",
      "ong"
    ],
    [
      "fol",
      "lowing</w>"
    ],
    [
      "G",
      "and"
    ],
    [
      "s",
      "ec"
    ],
    [
      "b",
      "er"
    ],
    [
      "ter",
      "ritor"
    ],
    [
      "D",
      "e"
    ],
    [
      "includ",
      "e</w>"
    ],
    [
      "influ",
      "en"
    ],
    [
      "m",
      "on"
    ],
    [
      "t",
      "en</w>"
    ],
    [
      "en",
      "d</w>"
    ],
    [
      "th",
      "re"
    ],
    [
      "c",
      "ar"
    ],
    [
      "are",
      "as</w>"
    ],
    [
      "19",
      "7"
    ],
    [
      "par",
      "ty</w>"
    ],
    [
      "J",
      "an"
    ],
    [
      "S",
      "h"
    ],
    [
      "si",
      "d"
    ],
    [
      "S",
      "t"
    ],
    [
      "si",
      "ons</w>"
    ],
    [
      "grow",
      "th</w>"
    ],
    [
      "cont",
      "ri"
    ],
    [
      "contri",
      "bu"
    ],
    [
      "en",
      "su"
    ],
    [
      "ensu",
      "s</w>"
    ],
    [
      "mus",
      "ic</w>"
    ],
    [
      "de",
      "p"
    ],
    [
      "dep",
      "end"
    ],
    [
      "em",
      "oc"
    ],
    [
      "I",
      "ts</w>"
    ],
    [
      "o",
      "b"
    ],
    [
      "land",
      "s</w>"
    ],
    [
      "ag",
      "o</w>"
    ],
    [
      "occ",
      "up"
    ],
    [
      "g",
      "a"
    ],
    [
      "al",
      "le"
    ],
    [
      "Eur",
      "o"
    ],
    [
      "Euro",
      "pe"
    ],
    [
      "Europe",
      "an</w>"
    ],
    [
      "di",
      "ff"
    ],
    [
      "regi",
      "ons</w>"
    ],
    [
      "th",
      "ere</w>"
    ],
    [
      "u",
      "s</w>"
    ],
    [
      "g",
      "an"
    ],
    [
      "Musli",
      "m</w>"
    ],
    [
      "si",
      "on</w>"
    ],
    [
      "no",
      "log"
    ],
    [
      "duc",
      "ation</w>"
    ],
    [
      "195",
      "0</w>"
    ],
    [
      "parliam",
      "ent"
    ],
    [
      "parliament",
      "ary</w>"
    ],
    [
      "ti",
      "</w>"
    ],
    [
      "e",
      "th"
    ],
    [
      "gre",
      "w</w>"
    ],
    [
      "c",
      "ap"
    ],
    [
      "an",
      "n"
    ],
    [
      "liter",
      "acy</w>"
    ],
    [
      "h",
      "ig"
    ],
    [
      "A",
      "m"
    ],
    [
      "al",
      "l"
    ],
    [
      "sup",
      "por"
    ],
    [
      "En",
      "g"
    ],
    [
      "Eng",
      "li"
    ],
    [
      "Engli",
      "sh</w>"
    ],
    [
      "r",
      "ed</w>"
    ],
    [
      "Con",
      "stitution</w>"
    ],
    [
      "orig",
      "in"
    ],
    [
      "c",
      "ur"
    ],
    [
      "wi",
      "de"
    ],
    [
      "s",
      "econ"
    ],
    [
      "secon",
      "d</w>"
    ],
    [
      "g",
      "ar"
    ],
    [
      "an",
      "ts</w>"
    ],
    [
      "fe",
      "at"
    ],
    [
      "f",
      "ig"
    ],
    [
      "at",
      "ing</w>"
    ],
    [
      "G",
      "anges</w>"
    ],
    [
      "em",
      "p"
    ],
    [
      "r",
      "am"
    ],
    [
      "fi",
      "ed</w>"
    ],
    [
      "ang",
      "e</w>"
    ],
    [
      "bas",
      "ed</w>"
    ],
    [
      "religi",
      "ons</w>"
    ],
    [
      "b",
      "ir"
    ],
    [
      "cent",
      "ral</w>"
    ],
    [
      "si",
      "ve</w>"
    ],
    [
      "sh",
      "o"
    ],
    [
      "c",
      "k</w>"
    ],
    [
      "e",
      "di"
    ],
    [
      "ent",
      "al</w>"
    ],
    [
      "t",
      "a"
    ],
    [
      "de",
      "v"
    ],
    [
      "p",
      "en"
    ],
    [
      "a",
      "i</w>"
    ],
    [
      "contro",
      "l</w>"
    ],
    [
      "the",
      "y</w>"
    ],
    [
      "r",
      "y</w>"
    ],
    [
      "di",
      "s"
    ],
    [
      "c",
      "u"
    ],
    [
      "st",
      "s</w>"
    ],
    [
      "it",
      "e</w>"
    ],
    [
      "e",
      "speci"
    ],
    [
      "especi",
      "ally</w>"
    ],
    [
      "p",
      "ain"
    ],
    [
      "ci",
      "al</w>"
    ],
    [
      "l",
      "ate</w>"
    ],
    [
      "c",
      "ru"
    ],
    [
      "t",
      "e"
    ],
    [
      "m",
      "ents</w>"
    ],
    [
      "su",
      "m"
    ],
    [
      "li",
      "m"
    ],
    [
      "Th",
      "ere</w>"
    ],
    [
      "in",
      "du"
    ],
    [
      "Gand",
      "hi</w>"
    ],
    [
      "0",
      "s</w>"
    ],
    [
      "st",
      "ates</w>"
    ],
    [
      "con",
      "stitution</w>"
    ],
    [
      "form",
      "ed</w>"
    ],
    [
      "w",
      "an"
    ],
    [
      "up",
      "</w>"
    ],
    [
      "e",
      "e"
    ],
    [
      "an",
      "cient</w>"
    ],
    [
      "rea",
      "d</w>"
    ],
    [
      "W",
      "e"
    ],
    [
      "d",
      "ra"
    ],
    [
      "ar",
      "i</w>"
    ],
    [
      "us",
      "e</w>"
    ],
    [
      "for",
      "e</w>"
    ],
    [
      "B",
      "J"
    ],
    [
      "BJ",
      "P</w>"
    ],
    [
      "Ne",
      "hr"
    ],
    [
      "Nehr",
      "u</w>"
    ],
    [
      "y",
      "e"
    ],
    [
      "ye",
      "ar</w>"
    ],
    [
      "w",
      "ar</w>"
    ],
    [
      "199",
      "1</w>"
    ],
    [
      "Un",
      "ited</w>"
    ],
    [
      "si",
      "s</w>"
    ],
    [
      "200",
      "1</w>"
    ],
    [
      "r",
      "ates</w>"
    ],
    [
      "c",
      "ensus</w>"
    ],
    [
      "an",
      "ces</w>"
    ],
    [
      "Hin",
      "di</w>"
    ],
    [
      "mar",
      "ri"
    ],
    [
      "s",
      "cul"
    ],
    [
      "scul",
      "p"
    ],
    [
      "A",
      "ra"
    ],
    [
      "d",
      "ers</w>"
    ],
    [
      "An",
      "dam"
    ],
    [
      "diver",
      "se</w>"
    ],
    [
      "alle",
      "y</w>"
    ],
    [
      "vi",
      "li"
    ],
    [
      "20",
      "0</w>"
    ],
    [
      "rec",
      "or"
    ],
    [
      "p",
      "r"
    ],
    [
      "4",
      "00</w>"
    ],
    [
      "Buddh",
      "ism</w>"
    ],
    [
      "D",
      "uring</w>"
    ],
    [
      "k",
      "ing"
    ],
    [
      "scri",
      "p"
    ],
    [
      "Is",
      "l"
    ],
    [
      "li",
      "sh"
    ],
    [
      "sou",
      "thern</w>"
    ],
    [
      "co",
      "ast"
    ],
    [
      "in",
      "ter"
    ],
    [
      "ent",
      "ly</w>"
    ],
    [
      "cre",
      "ated</w>"
    ],
    [
      "com",
      "po"
    ],
    [
      "t",
      "e</w>"
    ],
    [
      "p",
      "rom"
    ],
    [
      "tech",
      "nolog"
    ],
    [
      "e",
      "ducation</w>"
    ],
    [
      "o",
      "k</w>"
    ],
    [
      "mo",
      "vement</w>"
    ],
    [
      "vi",
      "ol"
    ],
    [
      "f",
      "ac"
    ],
    [
      "r",
      "ation</w>"
    ],
    [
      "fe",
      "der"
    ],
    [
      "feder",
      "al</w>"
    ],
    [
      "re",
      "public</w>"
    ],
    [
      "e",
      "ty</w>"
    ],
    [
      "bec",
      "ome</w>"
    ],
    [
      "grow",
      "ing</w>"
    ],
    [
      "mi",
      "d"
    ],
    [
      "hig",
      "h</w>"
    ],
    [
      "di",
      "sp"
    ],
    [
      "Am",
      "ong</w>"
    ],
    [
      "a",
      "ir</w>"
    ],
    [
      "b",
      "io"
    ],
    [
      "e",
      "w"
    ],
    [
      "Ac",
      "cording</w>"
    ],
    [
      "f",
      "er"
    ],
    [
      "de",
      "fin"
    ],
    [
      "ur",
      "ther</w>"
    ],
    [
      "P",
      "er"
    ],
    [
      "e",
      "astern</w>"
    ],
    [
      "we",
      "ll</w>"
    ],
    [
      "ter",
      "m</w>"
    ],
    [
      "ap",
      "p"
    ],
    [
      "wide",
      "ly</w>"
    ],
    [
      "en",
      "ti"
    ],
    [
      "co",
      "al"
    ],
    [
      "ear",
      "li"
    ],
    [
      "oo",
      "d</w>"
    ],
    [
      "y",
      "ing</w>"
    ],
    [
      "on",
      "ly</w>"
    ],
    [
      "The",
      "se</w>"
    ],
    [
      "ci",
      "ties</w>"
    ],
    [
      "sty",
      "les</w>"
    ],
    [
      "w",
      "a"
    ],
    [
      "in",
      "v"
    ],
    [
      "a",
      "d</w>"
    ],
    [
      "ou",
      "ld</w>"
    ],
    [
      "b",
      "ac"
    ],
    [
      "g",
      "e"
    ],
    [
      "se",
      "qu"
    ],
    [
      "am",
      "m"
    ],
    [
      "f",
      "l"
    ],
    [
      "T",
      "am"
    ],
    [
      "Tam",
      "il</w>"
    ],
    [
      "pen",
      "in"
    ],
    [
      "penin",
      "sul"
    ],
    [
      "v",
      "ely</w>"
    ],
    [
      "regi",
      "onal</w>"
    ],
    [
      "wh",
      "ose</w>"
    ],
    [
      "tradi",
      "tional</w>"
    ],
    [
      "t",
      "em"
    ],
    [
      "ni",
      "fic"
    ],
    [
      "sul",
      "tanate</w>"
    ],
    [
      "m",
      "en</w>"
    ],
    [
      "in",
      "di"
    ],
    [
      "lo",
      "cal</w>"
    ],
    [
      "h",
      "er"
    ],
    [
      "comm",
      "er"
    ],
    [
      "ad",
      "v"
    ],
    [
      "l",
      "ine</w>"
    ],
    [
      "long",
      "er</w>"
    ],
    [
      "se",
      "t</w>"
    ],
    [
      "se",
      "ver"
    ],
    [
      "c",
      "an"
    ],
    [
      "P",
      "ro"
    ],
    [
      "N",
      "ational</w>"
    ],
    [
      "tern",
      "al</w>"
    ],
    [
      "h",
      "el"
    ],
    [
      "w",
      "on</w>"
    ],
    [
      "v",
      "ic"
    ],
    [
      "elec",
      "tions</w>"
    ],
    [
      "c",
      "ri"
    ],
    [
      "Himalay",
      "as</w>"
    ],
    [
      "We",
      "stern</w>"
    ],
    [
      "si",
      "</w>"
    ],
    [
      "un",
      "ion</w>"
    ],
    [
      "t",
      "al</w>"
    ],
    [
      "of",
      "ten</w>"
    ],
    [
      "end",
      "em"
    ],
    [
      "for",
      "est</w>"
    ],
    [
      "n",
      "at"
    ],
    [
      "Ac",
      "t</w>"
    ],
    [
      "fi",
      "ve</w>"
    ],
    [
      "G",
      "overnment</w>"
    ],
    [
      "u",
      "st</w>"
    ],
    [
      "ti",
      "l</w>"
    ],
    [
      "2",
      "6</w>"
    ],
    [
      "bo",
      "d"
    ],
    [
      "i",
      "tion</w>"
    ],
    [
      "eig",
      "n</w>"
    ],
    [
      "ver",
      "y</w>"
    ],
    [
      "St",
      "ates</w>"
    ],
    [
      "ex",
      "ec"
    ],
    [
      "exec",
      "u"
    ],
    [
      "U",
      "ni"
    ],
    [
      "G",
      "D"
    ],
    [
      "GD",
      "P</w>"
    ],
    [
      "im",
      "por"
    ],
    [
      "offic",
      "ial</w>"
    ],
    [
      "ati",
      "</w>"
    ],
    [
      "in",
      "depend"
    ],
    [
      "b",
      "or"
    ],
    [
      "B",
      "h"
    ],
    [
      "an",
      "k"
    ],
    [
      "Andam",
      "an</w>"
    ],
    [
      "h",
      "igh"
    ],
    [
      "th",
      "in</w>"
    ],
    [
      "J",
      "ain"
    ],
    [
      "Jain",
      "ism</w>"
    ],
    [
      "so",
      "li"
    ],
    [
      "ri",
      "se</w>"
    ],
    [
      "st",
      "at"
    ],
    [
      "ili",
      "ty</w>"
    ],
    [
      "or",
      "gan"
    ],
    [
      "king",
      "dom"
    ],
    [
      "kingdom",
      "s</w>"
    ],
    [
      "S",
      "ou"
    ],
    [
      "Sou",
      "theast</w>"
    ],
    [
      "est",
      "ab"
    ],
    [
      "estab",
      "lish"
    ],
    [
      "m",
      "it"
    ],
    [
      "Sik",
      "h"
    ],
    [
      "j",
      "ec"
    ],
    [
      "le",
      "ft</w>"
    ],
    [
      "gh",
      "ts</w>"
    ],
    [
      "ch",
      "anges</w>"
    ],
    [
      "m",
      "ary</w>"
    ],
    [
      "t",
      "or</w>"
    ],
    [
      "al",
      "e</w>"
    ],
    [
      "g",
      "overn"
    ],
    [
      "is",
      "tic</w>"
    ],
    [
      "technolog",
      "y</w>"
    ],
    [
      "mid",
      "dle</w>"
    ],
    [
      "as",
      "s</w>"
    ],
    [
      "al",
      "ity</w>"
    ],
    [
      "K",
      "ash"
    ],
    [
      "ol",
      "ved</w>"
    ],
    [
      "mi",
      "d</w>"
    ],
    [
      "f",
      "our</w>"
    ],
    [
      "G",
      "re"
    ],
    [
      "o",
      "s</w>"
    ],
    [
      "se",
      "tt"
    ],
    [
      "B",
      "har"
    ],
    [
      "var",
      "i"
    ],
    [
      "N",
      "or"
    ],
    [
      "popul",
      "ar</w>"
    ],
    [
      "thou",
      "ght</w>"
    ],
    [
      "earli",
      "est</w>"
    ],
    [
      "ch",
      "ed</w>"
    ],
    [
      "5",
      "0</w>"
    ],
    [
      "k",
      "no"
    ],
    [
      "kno",
      "wn</w>"
    ],
    [
      "l",
      "s</w>"
    ],
    [
      "pro",
      "duc"
    ],
    [
      "5",
      "00</w>"
    ],
    [
      "ar",
      "ound</w>"
    ],
    [
      "al",
      "a</w>"
    ],
    [
      "ch",
      "ar"
    ],
    [
      "fig",
      "ures</w>"
    ],
    [
      "v",
      "ill"
    ],
    [
      "o",
      "ci"
    ],
    [
      "y",
      "an</w>"
    ],
    [
      "l",
      "ing</w>"
    ],
    [
      "pl",
      "a"
    ],
    [
      "pla",
      "ce</w>"
    ],
    [
      "emp",
      "lo"
    ],
    [
      "b",
      "ro"
    ],
    [
      "ho",
      "wever</w>"
    ],
    [
      "re",
      "g"
    ],
    [
      "3",
      "00</w>"
    ],
    [
      "diff",
      "er"
    ],
    [
      "con",
      "duc"
    ],
    [
      "B",
      "ra"
    ],
    [
      "Bra",
      "h"
    ],
    [
      "f",
      "oun"
    ],
    [
      "em",
      "pire</w>"
    ],
    [
      "t",
      "ex"
    ],
    [
      "sub",
      "sequ"
    ],
    [
      "str",
      "uc"
    ],
    [
      "i",
      "ans</w>"
    ],
    [
      "ad",
      "minist"
    ],
    [
      "gre",
      "at"
    ],
    [
      "al",
      "ong</w>"
    ],
    [
      "a",
      "ver"
    ],
    [
      "ma",
      "k"
    ],
    [
      "develo",
      "p"
    ],
    [
      "sig",
      "nific"
    ],
    [
      "b",
      "ers</w>"
    ],
    [
      "in",
      "es</w>"
    ],
    [
      "s",
      "ch"
    ],
    [
      "ar",
      "s</w>"
    ],
    [
      "om",
      "e"
    ],
    [
      "Buddh",
      "ist</w>"
    ],
    [
      "v",
      "ast</w>"
    ],
    [
      "lead",
      "ing</w>"
    ],
    [
      "Al",
      "though</w>"
    ],
    [
      "e",
      "lit"
    ],
    [
      "o",
      "wn</w>"
    ],
    [
      "ra",
      "c"
    ],
    [
      "peninsul",
      "ar</w>"
    ],
    [
      "ea",
      "d</w>"
    ],
    [
      "f",
      "ar</w>"
    ],
    [
      "m",
      "s</w>"
    ],
    [
      "pain",
      "ting</w>"
    ],
    [
      "g",
      "rou"
    ],
    [
      "R",
      "aj"
    ],
    [
      "ce",
      "ss</w>"
    ],
    [
      "eng",
      "th</w>"
    ],
    [
      "f",
      "urther</w>"
    ],
    [
      "po",
      "in"
    ],
    [
      "h",
      "ou"
    ],
    [
      "of",
      "f</w>"
    ],
    [
      "sty",
      "le</w>"
    ],
    [
      "p",
      "ay"
    ],
    [
      "st",
      "ri"
    ],
    [
      "wor",
      "k</w>"
    ],
    [
      "pro",
      "vi"
    ],
    [
      "indu",
      "str"
    ],
    [
      "industr",
      "y</w>"
    ],
    [
      "leg",
      "is"
    ],
    [
      "per",
      "ation</w>"
    ],
    [
      "19",
      "3"
    ],
    [
      "en",
      "ac"
    ],
    [
      "li",
      "ber"
    ],
    [
      "low",
      "er</w>"
    ],
    [
      "Th",
      "is</w>"
    ],
    [
      "contin",
      "u"
    ],
    [
      "ea",
      "u</w>"
    ],
    [
      "no",
      "w</w>"
    ],
    [
      "con",
      "stitu"
    ],
    [
      "sp",
      "read</w>"
    ],
    [
      "re",
      "main"
    ],
    [
      "sur",
      "vi"
    ],
    [
      "p",
      "ur"
    ],
    [
      "u",
      "j"
    ],
    [
      "k",
      "h"
    ],
    [
      "sh",
      "or"
    ],
    [
      "2",
      "8</w>"
    ],
    [
      "territor",
      "ies</w>"
    ],
    [
      "influen",
      "ced</w>"
    ],
    [
      "pl",
      "ay"
    ],
    [
      "p",
      "ical</w>"
    ],
    [
      "4",
      "0</w>"
    ],
    [
      "b",
      "le</w>"
    ],
    [
      "al",
      "i</w>"
    ],
    [
      "end",
      "ang"
    ],
    [
      "endang",
      "ered</w>"
    ],
    [
      "1",
      "5</w>"
    ],
    [
      "hel",
      "d</w>"
    ],
    [
      "un",
      "til</w>"
    ],
    [
      "Jan",
      "u"
    ],
    [
      "Janu",
      "ary</w>"
    ],
    [
      "196",
      "5</w>"
    ],
    [
      "gen",
      "cy</w>"
    ],
    [
      "3",
      "1</w>"
    ],
    [
      "coal",
      "ition</w>"
    ],
    [
      "m",
      "em"
    ],
    [
      "s",
      "ing"
    ],
    [
      "re",
      "sid"
    ],
    [
      "f",
      "un"
    ],
    [
      "o",
      "g"
    ],
    [
      "execu",
      "tive</w>"
    ],
    [
      "Uni",
      "on</w>"
    ],
    [
      "thre",
      "e</w>"
    ],
    [
      "cour",
      "ts</w>"
    ],
    [
      "c",
      "lo"
    ],
    [
      "g",
      "lo"
    ],
    [
      "is",
      "e</w>"
    ],
    [
      "marke",
      "t</w>"
    ],
    [
      "esti",
      "m"
    ],
    [
      "al",
      "es</w>"
    ],
    [
      "l",
      "ast</w>"
    ],
    [
      "fam",
      "ili"
    ],
    [
      "famili",
      "es</w>"
    ],
    [
      "develo",
      "ped</w>"
    ],
    [
      "cho",
      "ol"
    ],
    [
      "om",
      "</w>"
    ],
    [
      "sculp",
      "ture</w>"
    ],
    [
      "tradi",
      "tions</w>"
    ],
    [
      "bod",
      "y</w>"
    ],
    [
      "d",
      "ances</w>"
    ],
    [
      "wor",
      "n</w>"
    ],
    [
      "coo",
      "ked</w>"
    ],
    [
      "d",
      "emoc"
    ],
    [
      "bi",
      "an</w>"
    ],
    [
      "Se",
      "a</w>"
    ],
    [
      "th",
      "west</w>"
    ],
    [
      "sh",
      "ar"
    ],
    [
      "l",
      "ad"
    ],
    [
      "y",
      "an"
    ],
    [
      "Af",
      "ric"
    ],
    [
      "Afric",
      "a</w>"
    ],
    [
      "5",
      "5</w>"
    ],
    [
      "The",
      "ir</w>"
    ],
    [
      "th",
      "er"
    ],
    [
      "in",
      "s</w>"
    ],
    [
      "gra",
      "du"
    ],
    [
      "V",
      "alley</w>"
    ],
    [
      "vili",
      "s"
    ],
    [
      "vilis",
      "ation</w>"
    ],
    [
      "1",
      "200</w>"
    ],
    [
      "h",
      "y"
    ],
    [
      "n",
      "s</w>"
    ],
    [
      "recor",
      "ded</w>"
    ],
    [
      "D",
      "ra"
    ],
    [
      "Dra",
      "vi"
    ],
    [
      "Dravi",
      "di"
    ],
    [
      "Dravidi",
      "an</w>"
    ],
    [
      "wi",
      "thin</w>"
    ],
    [
      "con",
      "soli"
    ],
    [
      "consoli",
      "d"
    ],
    [
      "Ma",
      "ur"
    ],
    [
      "G",
      "up"
    ],
    [
      "er",
      "a</w>"
    ],
    [
      "f",
      "lo"
    ],
    [
      "ur",
      "is"
    ],
    [
      "arch",
      "it"
    ],
    [
      "archit",
      "ec"
    ],
    [
      "w",
      "ri"
    ],
    [
      "t",
      "ou"
    ],
    [
      "tou",
      "ch"
    ],
    [
      "touch",
      "ab"
    ],
    [
      "e",
      "f</w>"
    ],
    [
      "tu",
      "res</w>"
    ],
    [
      "establish",
      "ed</w>"
    ],
    [
      "res",
      "ul"
    ],
    [
      "resul",
      "ting</w>"
    ],
    [
      "wor",
      "ks</w>"
    ],
    [
      "r",
      "ich</w>"
    ],
    [
      "tur",
      "ned</w>"
    ],
    [
      "ri",
      "ghts</w>"
    ],
    [
      "g",
      "r"
    ],
    [
      "in",
      "tro"
    ],
    [
      "i",
      "de"
    ],
    [
      "to",
      "ok</w>"
    ],
    [
      "influ",
      "ence</w>"
    ],
    [
      "em",
      "ents</w>"
    ],
    [
      "end",
      "ing</w>"
    ],
    [
      "comp",
      "an"
    ],
    [
      "r",
      "atic</w>"
    ],
    [
      "m",
      "ul"
    ],
    [
      "u",
[...]
